, 205661
. 172954
s 145767
▁the 136582
' 86989
▁to 85761
▁of 79942
▁a 75865
▁and 71454
▁that 60843
▁I 56737
▁in 54805
▁is 45225
▁you 44310
▁it 43548
▁we 37370
▁And 32232
t 31547
▁this 28891
▁ 26187
ing 21428
▁was 20672
▁-- 20278
▁for 20203
▁are 19080
ed 18984
n 18927
▁have 18857
▁on 17947
▁they 17918
d 17333
▁with 16943
▁can 16466
- 16234
re 16101
▁So 15807
▁what 15284
▁be 15194
▁about 14628
? 13539
▁as 13383
▁at 13029
▁do 12856
▁all 12590
m 12441
▁not 12396
▁" 12279
▁there 11770
▁one 11751
e 11602
▁so 11597
▁It 11033
▁people 10886
▁like 10780
▁my 10676
▁an 10670
▁from 10617
y 10274
ly 9949
▁but 9477
ve 9319
: 9209
▁just 9204
▁me 9132
▁out 8935
▁or 8830
▁our 8757
▁very 8750
▁know 8617
▁But 8604
▁these 8594
▁We 8569
▁if 8454
▁The 8439
er 8387
▁up 8364
▁he 8231
▁them 8029
▁going 8026
▁by 7878
c 7439
▁see 7438
▁when 7332
▁had 7234
▁think 7201
▁because 7180
▁which 7120
▁more 7112
▁who 6910
▁would 6873
▁how 6835
▁really 6698
." 6687
▁were 6673
▁your 6672
▁get 6570
▁their 6498
r 6461
▁here 6310
▁us 6177
▁world 5938
al 5930
▁then 5910
▁has 5899
▁time 5878
▁This 5870
es 5698
▁You 5672
▁some 5651
▁don 5576
▁into 5572
▁actually 5521
▁way 5365
▁could 5310
▁things 5302
▁want 5301
▁go 5284
en 5276
▁now 5192
▁where 5189
▁years 5172
▁will 5123
▁did 5046
▁other 5024
▁Now 4932
ll 4851
▁make 4749
▁They 4687
▁been 4599
▁said 4536
▁no 4520
▁right 4345
▁something 4263
▁two 4141
▁over 4129
▁much 4031
▁got 3988
▁little 3985
▁than 3984
▁first 3916
in 3912
▁back 3900
▁thing 3898
▁those 3818
▁his 3817
▁she 3790
; 3773
▁look 3766
▁also 3739
▁In 3732
ic 3715
▁say 3651
▁life 3640
▁work 3605
▁That 3588
▁even 3586
▁re 3515
le 3483
▁kind 3483
g 3475
l 3424
▁need 3389
▁only 3359
th 3297
▁most 3283
▁take 3225
p 3223
▁lot 3195
▁new 3156
▁good 3155
▁down 3099
▁many 3092
▁does 3066
▁He 3065
▁around 3063
▁What 3030
▁There 3027
▁A 2991
▁different 2941
o 2888
▁use 2844
st 2842
a 2819
▁through 2814
▁being 2785
▁her 2782
▁come 2761
▁put 2678
▁same 2650
f 2639
▁doing 2615
ation 2609
ate 2597
▁every 2560
▁three 2549
▁talk 2499
ive 2458
ur 2454
b 2448
▁If 2437
or 2434
▁well 2427
ers 2406
▁day 2359
ar 2350
▁called 2341
i 2337
ion 2324
it 2322
▁any 2311
ity 2307
ro 2305
an 2275
▁percent 2264
▁made 2243
il 2228
▁Well 2219
▁human 2217
▁fact 2215
▁own 2157
▁de 2137
▁tell 2127
▁p 2125
▁should 2125
▁find 2116
▁great 2109
ri 2096
▁why 2086
▁year 2083
se 2082
ul 2075
ment 2060
▁thought 2057
" 2034
▁today 2005
?" 2003
▁last 1979
▁idea 1974
k 1970
▁after 1960
▁change 1960
▁big 1948
h 1945
▁part 1943
u 1939
▁let 1929
I 1910
▁went 1907
able 1897
▁off 1891
▁course 1884
▁started 1882
▁con 1877
▁point 1857
▁before 1855
▁bit 1850
▁give 1846
▁show 1825
w 1819
ce 1813
▁system 1812
▁sort 1809
▁another 1807
▁story 1806
▁Thank 1804
▁problem 1797
▁end 1794
▁better 1792
▁never 1778
▁long 1777
▁important 1775
▁start 1768
▁un 1748
te 1742
▁came 1736
▁might 1732
▁few 1723
▁able 1715
▁him 1714
▁brain 1710
▁S 1708
▁place 1706
ch 1705
▁ago 1697
us 1686
▁next 1680
▁together 1671
▁still 1659
▁again 1656
▁E 1650
▁call 1650
▁water 1648
on 1631
▁real 1628
▁mean 1626
▁technology 1620
S 1614
▁love 1614
▁each 1611
ci 1605
ra 1600
▁c 1584
▁found 1580
▁design 1574
," 1570
▁too 1557
▁between 1555
▁used 1544
▁Because 1542
ist 1533
▁When 1517
▁question 1511
is 1508
▁believe 1507
▁light 1505
▁looking 1498
▁done 1492
▁C 1491
▁co 1490
li 1485
▁live 1473
▁whole 1471
▁help 1467
▁play 1467
ter 1465
▁feel 1461
A 1459
▁understand 1459
▁example 1447
▁data 1442
ol 1438
▁man 1434
ir 1411
▁second 1402
▁wanted 1396
▁10 1395
▁four 1392
▁home 1391
▁space 1385
▁children 1384
▁million 1376
▁form 1362
▁create 1359
▁may 1359
▁power 1354
▁car 1349
▁20 1345
▁person 1345
▁school 1345
▁How 1339
▁trying 1337
x 1334
▁away 1329
▁try 1324
et 1308
z 1308
▁always 1306
▁working 1305
▁money 1304
▁ever 1297
est 1290
▁high 1284
as 1277
ian 1272
ies 1258
▁kids 1251
ne 1249
▁five 1248
▁sense 1248
▁country 1246
ma 1243
ness 1237
▁hard 1236
ry 1233
ated 1231
ance 1226
▁food 1225
▁using 1217
ver 1216
▁women 1216
▁am 1215
ia 1214
▁old 1213
age 1210
em 1205
▁took 1200
▁U 1199
▁everything 1195
▁mind 1195
ting 1194
! 1191
▁maybe 1189
im 1186
▁small 1186
ted 1185
ha 1178
▁information 1178
▁means 1178
▁One 1177
▁hand 1176
▁thinking 1176
▁future 1171
▁per 1168
me 1166
ig 1164
▁moment 1164
▁bring 1161
▁under 1159
▁energy 1157
▁experience 1157
▁case 1156
tor 1154
▁left 1154
▁T 1148
▁number 1147
vi 1145
▁quite 1145
▁B 1141
▁become 1140
▁She 1138
el 1136
▁dis 1135
ating 1133
▁process 1133
▁side 1133
▁war 1131
▁open 1130
▁enough 1129
▁best 1125
▁getting 1122
▁interesting 1122
▁says 1119
▁comes 1118
▁head 1118
▁pro 1117
▁These 1108
un 1102
ten 1101
▁stuff 1100
▁cr 1098
▁My 1096
▁ask 1096
C 1092
▁ex 1090
▁probably 1090
▁For 1088
ant 1087
ary 1081
ho 1077
▁social 1074
op 1073
la 1068
cy 1067
▁Here 1066
▁planet 1066
▁times 1066
▁happened 1064
lu 1061
▁building 1061
▁less 1061
▁Africa 1060
▁talking 1060
▁making 1058
va 1057
▁di 1056
▁simple 1055
▁move 1045
▁room 1045
ling 1041
▁answer 1040
▁dollars 1040
▁without 1037
ge 1035
▁build 1034
▁body 1030
▁e 1030
▁coming 1023
▁half 1022
at 1021
▁st 1020
▁No 1017
▁music 1012
up 1003
id 1000
▁keep 999
▁b 998
▁face 998
▁billion 996
▁anything 994
▁As 989
▁bad 987
▁im 987
▁makes 987
tic 983
▁lives 983
ence 981
▁young 981
▁pretty 978
▁science 977
▁goes 972
ism 971
▁global 971
▁pre 970
▁project 970
▁across 968
▁happen 968
▁reason 964
de 962
ine 962
▁care 961
ty 956
▁else 952
less 950
▁art 949
▁countries 948
▁living 946
▁such 944
▁told 944
▁picture 942
▁die 941
▁matter 941
▁saw 941
old 940
▁Let 940
▁seen 940
▁learn 937
▁All 931
▁far 931
▁set 930
mo 929
to 929
▁happens 929
▁market 926
▁ways 926
um 920
▁six 917
ca 914
▁health 914
co 912
▁problems 911
▁hope 907
lo 905
& 904
▁19 897
▁days 897
D 896
▁family 896
rs 894
▁government 894
▁po 893
▁Earth 891
▁having 891
▁basically 888
▁read 886
man 884
▁both 884
▁later 883
mp 881
▁asked 880
▁gr 878
ure 877
▁video 877
▁computer 876
▁inside 876
und 872
▁R 870
▁ideas 870
▁book 869
▁single 868
ous 865
▁New 861
▁control 861
▁top 861
▁level 857
ck 856
▁business 856
sh 854
▁ca 853
▁saying 853
ta 848
▁yet 843
▁wrong 836
▁remember 833
▁self 832
▁language 831
▁state 829
▁while 829
ized 828
ke 827
▁share 827
▁la 826
▁cancer 825
▁child 825
,000 823
M 823
the 823
▁sh 823
▁disease 822
▁test 822
▁looks 819
▁men 819
▁guy 815
▁Why 814
▁once 813
com 810
▁almost 810
lt 809
▁beautiful 807
▁run 807
▁heart 805
▁name 804
ize 802
▁history 802
▁imagine 801
▁possible 800
▁cells 799
▁true 799
▁age 795
▁f 795
ster 794
▁sure 793
▁within 793
ally 791
▁education 790
▁already 788
▁30 786
ful 785
▁research 784
▁Co 782
os 778
▁order 778
▁mother 774
▁nothing 774
▁Re 773
▁amazing 772
▁looked 770
[ 769
] 768
ach 767
▁universe 767
▁works 767
▁whether 766
▁heard 763
▁large 763
▁50 762
▁often 762
B 756
tro 756
▁piece 756
be 753
▁couple 753
▁grow 753
▁Mo 752
▁months 752
am 751
▁community 746
▁ma 746
▁India 745
▁city 745
2 744
▁difference 744
▁group 744
▁line 744
ard 743
ut 742
▁force 742
▁public 740
▁OK 739
▁r 739
▁sub 738
▁land 737
▁myself 737
▁nature 737
▁built 736
▁everybody 732
▁ge 732
▁must 730
▁air 729
▁close 729
go 727
▁stop 727
▁... 724
▁environment 723
▁sp 723
▁turn 722
tra 718
bo 716
ring 716
▁Do 715
▁TED 715
▁United 714
di 713
▁experiment 711
▁words 710
T 709
ie 709
▁free 709
▁someone 709
▁front 706
▁past 705
▁species 705
▁stories 703
ap 701
▁night 701
▁figure 700
que 699
ions 698
con 697
ru 697
▁decided 697
▁ocean 697
v 696
▁Or 696
▁places 696
▁kinds 695
▁model 693
▁vi 693
▁house 690
P 688
▁until 688
▁taking 686
▁God 682
▁game 682
do 681
per 681
▁An 679
sp 677
▁personal 677
▁view 677
land 675
▁natural 675
The 674
line 674
▁minutes 673
▁oil 672
▁itself 670
▁though 670
ub 669
▁exactly 669
▁ourselves 668
ities 667
▁economic 667
▁wasn 667
▁To 666
▁completely 666
ial 665
▁job 665
pe 664
▁G 664
▁leave 664
▁behavior 663
ph 662
▁culture 662
ot 659
▁act 659
▁happening 659
che 658
ton 658
▁since 658
▁themselves 658
▁Ma 657
▁hear 657
▁America 655
▁somebody 655
▁Internet 654
▁became 654
▁huge 654
8 653
ow 653
▁rather 649
ish 647
uc 647
▁States 647
▁animals 647
▁bo 647
ger 646
king 645
▁app 645
▁step 645
▁M 644
▁du 643
tion 642
he 641
way 641
▁15 640
▁buy 640
▁challenge 640
▁comp 640
▁se 640
O 638
ual 638
▁gets 638
▁woman 638
▁sound 637
▁students 637
▁won 637
ite 636
▁learned 636
▁turns 636
we 635
E 634
na 634
▁Then 634
▁created 632
▁along 630
▁news 630
ors 628
7 627
ction 627
dy 627
▁structure 627
▁study 627
▁cell 626
▁shows 626
▁word 625
▁company 624
▁fish 623
ious 622
lic 622
▁At 622
4 621
ator 621
▁g 621
▁society 621
▁team 620
▁third 620
ative 619
ga 618
ther 618
▁guys 618
▁ba 617
▁hours 615
5 614
▁color 614
▁explain 614
les 613
▁K 613
1 611
ber 611
▁China 611
▁Le 611
▁knew 611
▁short 611
▁li 609
▁amount 608
▁particular 608
▁friends 606
▁happy 605
▁seven 604
▁100 602
▁mo 600
▁population 600
▁worked 599
▁cause 598
▁questions 598
▁shape 596
mi 595
▁paper 595
▁walk 593
one 591
▁least 591
▁everyone 589
▁gave 589
ging 588
ical 588
son 588
▁field 588
mon 587
▁machine 586
▁film 585
0 583
▁death 583
▁image 583
▁against 582
▁early 582
▁program 582
▁wonderful 582
side 581
▁lots 581
▁pay 581
▁F 580
▁deal 579
▁photograph 579
her 578
▁area 578
▁rest 578
▁sometimes 578
▁takes 576
▁non 575
▁outside 575
R 574
▁moving 574
▁speak 573
▁Be 572
▁Okay 571
▁arm 571
od 570
red 570
▁deep 570
▁learning 570
fi 569
▁difficult 569
act 565
▁American 565
▁eight 565
▁full 564
ner 563
▁century 563
▁instead 562
▁systems 562
K 561
ding 561
▁others 561
▁exist 559
▁cost 558
▁entire 557
ag 555
▁local 555
▁Al 554
▁poor 554
▁lo 553
▁taken 553
pa 552
▁O 552
▁York 552
▁needs 552
▁pick 552
▁common 551
▁effect 551
▁middle 551
▁thousands 551
▁feeling 550
▁powerful 550
▁eyes 549
ations 548
L 546
hi 546
▁beginning 546
6 545
no 543
▁Ro 543
▁drive 543
▁scale 543
▁watch 543
▁relationship 542
during 541
▁map 541
▁o 541
Well 540
ium 539
ving 539
▁expect 539
▁size 539
ization 538
so 538
▁record 537
gen 536
▁present 536
▁18 535
▁fun 535
▁sea 535
9 534
▁seeing 533
▁terms 533
▁Some 532
▁spend 532
▁week 532
▁friend 530
wa 528
▁center 528
▁device 528
▁perhaps 528
3 527
▁black 527
▁cut 527
▁yourself 527
▁br 526
▁turned 526
▁hands 525
▁eat 524
▁parts 524
▁begin 523
▁phone 523
ba 522
ile 522
▁certain 522
▁father 522
▁behind 520
▁surface 520
bu 519
▁De 519
▁40 516
▁measure 516
▁support 516
▁low 514
▁interested 513
ists 512
▁blue 512
▁given 510
▁easy 509
▁cannot 508
▁changed 508
ible 507
▁reach 507
ler 506
ward 506
cal 504
fa 503
▁media 501
▁street 501
▁finally 499
▁longer 499
▁On 498
▁began 498
year 497
▁hit 497
▁La 496
▁red 496
▁stand 496
▁thank 496
▁D 495
▁value 493
ab 492
▁Bo 492
▁kid 492
▁wall 491
▁sc 490
▁whatever 490
iv 488
▁inter 488
▁save 488
/ 487
▁produce 487
▁risk 487
▁Can 482
G 480
▁ab 480
▁dark 480
▁gone 480
▁12 478
▁needed 478
▁special 478
▁tried 478
▁complex 477
▁quickly 477
▁rate 477
▁simply 477
ping 476
ice 475
▁realized 475
ak 474
▁Ha 474
▁plan 474
▁People 473
▁choice 472
▁ground 472
▁win 472
You 471
▁Just 471
▁break 471
▁green 471
▁stay 471
▁super 470
▁focus 469
▁physical 469
▁solve 469
▁DNA 468
▁movement 468
bi 467
▁Da 466
▁spent 466
qui 465
▁artist 465
▁dream 464
▁parents 464
▁stage 464
▁P 463
▁el 463
▁political 463
▁3 462
▁generation 462
der 460
▁feet 458
ier 457
▁hu 457
▁situation 457
ick 456
izing 456
▁ability 456
▁v 456
▁books 455
▁pull 455
▁da 454
▁cool 453
▁fo 453
▁known 453
▁sitting 453
▁wonder 453
▁connect 452
men 450
▁humans 450
▁nice 450
▁post 450
▁send 449
▁write 449
ain 448
▁continue 448
▁strong 448
▁either 447
▁lead 447
What 446
▁fast 446
▁incredible 446
▁lost 446
cent 445
▁St 445
▁companies 445
▁economy 444
▁growth 444
▁represent 444
▁Right 443
▁audience 443
▁fly 442
▁key 442
▁visual 442
sa 440
▁cities 440
▁hold 440
▁miles 440
▁predict 440
▁blood 439
▁class 439
▁fear 439
▁felt 439
▁met 439
▁girl 438
▁allow 437
▁reality 437
ue 436
▁born 436
▁fire 436
▁travel 436
ability 435
▁add 435
led 434
▁animal 434
day 433
ep 433
▁brought 433
▁character 433
▁den 433
▁individual 433
▁office 433
▁weeks 433
▁World 432
F 431
fin 431
▁rec 430
▁technologies 430
▁main 429
▁starting 429
▁areas 428
▁bottom 428
▁approach 427
▁gives 427
▁voice 427
▁Pa 426
▁forward 426
▁opportunity 426
▁Not 425
▁average 424
▁material 424
▁protect 424
▁ta 424
▁South 423
▁innovation 423
▁m 422
▁result 422
▁developed 421
▁function 421
▁growing 421
▁theory 420
▁access 419
▁morning 419
▁wrote 419
ight 418
▁based 418
▁sign 417
▁fall 416
▁organization 416
▁realize 414
▁spread 414
▁changes 413
▁clear 413
▁seem 413
▁suggest 413
tin 412
▁bio 412
▁dr 412
▁gas 412
▁images 412
▁increase 412
▁impact 411
▁object 411
▁patients 411
▁provide 411
▁movie 410
▁box 408
▁climate 408
▁sun 408
end 407
gt 407
▁4 407
▁smart 407
om 406
▁action 406
bra 405
▁Sa 405
ble 404
ern 404
▁giving 404
▁knowledge 404
til 403
▁attention 403
▁numbers 403
▁tr 403
▁mass 402
▁touch 402
▁wind 402
▁des 400
▁village 400
▁depend 399
▁eye 399
▁literally 399
▁playing 399
▁tools 399
N 398
vo 398
▁message 398
▁understanding 398
ord 397
ste 397
▁camera 397
▁ice 397
▁modern 397
▁seems 397
atic 396
out 396
▁concept 396
▁development 396
port 395
qua 395
▁25 395
▁guess 395
▁page 395
▁photo 395
▁source 395
light 394
ped 394
▁mine 394
▁path 394
▁potential 394
ake 393
istic 393
▁sell 393
▁site 393
▁sw 393
▁worth 393
▁compassion 392
▁discovered 392
▁moral 392
▁white 392
▁Ho 391
▁lab 391
▁scientists 391
da 390
▁dead 390
▁cars 389
▁table 389
use 388
▁1 388
▁running 388
▁wish 388
▁similar 387
H 386
▁English 386
▁invest 386
▁nu 386
▁road 386
▁Me 385
▁With 385
▁hospital 385
▁late 385
ever 384
organ 384
▁W 384
▁kill 384
ide 383
log 383
▁network 383
▁alone 382
by 381
▁Mar 381
▁anyone 380
▁chance 380
▁fi 380
▁telling 380
for 379
▁creating 379
low 378
▁Our 378
ft 377
▁Ne 377
▁Yeah 377
▁issue 377
▁patient 377
io 376
oo 376
ze 376
▁goal 376
▁major 376
▁millions 376
▁wo 376
▁industry 374
▁solution 374
ps 373
time 373
▁track 373
▁vision 373
▁hundreds 372
▁region 372
▁sit 371
▁teach 371
ng 370
▁developing 370
▁revolution 370
▁ja 369
▁w 369
▁African 368
▁follow 368
▁incredibly 368
▁ob 368
ably 367
▁song 367
▁strange 367
▁type 367
▁showed 366
▁meet 365
▁period 365
▁soon 365
▁star 365
▁fundamental 364
lock 363
▁Chinese 363
▁available 363
▁talked 363
▁recently 362
fe 361
pro 361
ship 361
▁evolution 361
▁ha 361
▁normal 361
▁rich 361
▁product 360
W 359
▁interest 359
▁J 358
▁baby 358
▁subject 358
if 357
▁appear 357
▁girls 357
ud 356
▁North 356
▁Sh 356
▁develop 356
▁absolutely 355
▁bigger 355
▁games 355
▁offer 355
▁push 355
ert 354
▁perfect 354
▁rid 354
▁tiny 354
Q 353
▁Fi 353
▁Go 353
▁gu 353
▁Li 352
▁dog 352
▁flow 352
▁medical 352
▁micro 352
▁price 352
▁scientific 352
ged 351
ration 351
▁Ja 351
▁By 350
▁hundred 350
▁pass 350
▁treat 350
▁Con 349
▁basic 349
▁becomes 349
▁report 349
No 348
▁Of 348
▁truth 348
fer 347
▁designed 347
▁pictures 347
▁reasons 347
▁recognize 347
▁safe 347
▁writing 347
ren 346
▁Europe 346
▁resources 346
▁transform 346
tric 344
▁benefit 344
▁bar 343
▁carbon 343
▁door 343
— 342
▁screen 342
▁Ba 341
▁among 341
▁putting 341
ass 340
▁beyond 340
▁genetic 340
▁60 339
▁cur 338
▁digital 338
▁success 338
ology 337
▁computers 337
▁ju 337
▁listen 337
▁materials 337
▁require 337
ey 336
▁cat 336
▁especially 336
▁evidence 336
▁join 336
lin 335
xi 335
▁feed 335
▁happiness 335
val 333
▁changing 333
▁online 333
▁clean 332
▁fe 332
▁flu 332
▁schools 332
ition 331
▁agree 331
▁fund 331
▁hole 331
▁issues 331
▁skin 331
▁slow 331
▁tells 331
▁tend 331
▁trust 331
▁Google 330
▁L 330
▁engineer 330
▁involved 330
▁lived 330
▁towards 330
▁yes 330
▁anybody 329
▁rules 329
▁solar 329
Oh 328
mit 328
▁anti 328
▁print 328
▁sold 328
▁store 328
▁cover 327
▁draw 327
▁groups 327
▁magic 327
▁law 326
▁month 326
▁nine 326
▁sounds 326
▁stick 326
▁attack 325
▁card 325
▁progress 325
▁speed 325
▁teachers 324
▁HIV 323
▁connection 323
▁asking 322
▁ear 322
ically 321
ified 321
▁Ka 321
▁journey 321
▁pattern 321
grad 320
▁N 320
▁collect 320
▁qu 320
▁treatment 320
▁cap 319
▁fr 319
▁mar 319
▁robot 319
▁several 319
▁engage 318
▁fuel 318
▁nation 318
▁near 318
▁particularly 318
ries 317
▁Oh 317
▁breath 317
▁deliver 317
▁element 317
▁examples 317
▁positive 317
▁slide 317
pen 316
▁Car 316
▁bed 316
▁bus 316
▁further 316
▁projects 316
ify 315
par 315
▁conversation 315
▁obviously 315
▁Every 314
▁general 314
▁list 314
▁peace 314
▁religion 314
▁trans 313
▁chemical 312
▁text 312
au 311
▁Yes 311
▁foot 311
▁position 311
▁software 311
▁throw 311
cle 310
▁block 310
▁direction 310
▁quality 310
ologist 309
▁Se 309
▁lose 309
▁showing 309
▁wi 309
and 308
den 308
▁achieve 308
▁dance 308
▁hot 308
▁version 308
amp 307
▁First 307
▁code 307
▁dem 307
▁starts 307
▁successful 307
X 306
form 306
▁Ra 306
▁certainly 306
▁discover 306
art 305
pla 305
▁Dr 305
▁V 305
▁detail 305
▁favorite 305
▁onto 305
▁plant 305
▁sent 305
pri 304
▁War 304
▁capital 304
▁consider 304
▁exciting 304
▁practice 304
▁search 304
▁trial 304
▁vo 304
▁wait 304
▁Maybe 303
▁explore 303
▁farm 303
plica 302
▁Di 302
▁Where 302
▁biggest 302
▁brains 302
▁nuclear 302
ang 301
ray 301
▁ho 301
ark 300
set 300
▁everywhere 300
▁likely 300
▁response 300
▁security 300
▁carry 299
▁cross 299
▁nobody 299
▁para 299
▁sex 299
ough 298
▁Ca 298
▁drop 298
▁hat 298
▁Even 297
▁moved 297
▁thousand 297
▁walking 297
ack 296
▁medicine 296
▁ready 296
▁role 296
▁plastic 295
▁square 295
▁Don 294
▁East 294
▁activity 294
▁scar 294
▁adult 293
▁bacteria 293
▁count 293
▁fix 293
▁notice 293
0,000 292
av 292
▁Most 292
▁connected 292
▁democracy 292
▁extraordinary 292
▁finding 292
▁hour 292
▁meaning 292
▁national 292
▁perspective 292
gi 291
ute 291
▁After 291
▁check 291
▁equal 291
▁fight 291
▁led 291
▁na 291
▁totally 291
▁West 290
▁shot 290
▁signal 290
▁fla 289
▁sing 289
des 288
hal 288
▁80 288
▁creative 288
▁grew 288
▁mental 288
▁please 288
▁student 288
▁supposed 288
ook 287
▁fit 287
▁remain 287
▁results 287
▁shift 287
▁visit 287
pur 286
▁16 286
▁boy 286
▁objects 286
chi 285
▁emotion 285
▁products 285
▁secret 285
▁sky 285
▁traditional 285
like 284
▁extremely 284
▁park 284
▁standard 284
▁train 284
▁context 283
▁meeting 283
▁principle 283
▁tool 283
ell 282
▁buildings 282
▁content 282
▁teacher 282
▁watching 282
put 281
▁fine 281
▁higher 281
▁prevent 281
▁prop 281
▁rock 281
▁sat 281
We 280
cor 280
vis 280
▁Ni 280
▁Vi 280
▁Who 280
▁Y 280
▁account 280
▁drug 280
▁largest 280
▁mis 280
▁return 280
▁waste 280
▁200 279
▁bank 279
▁named 279
ari 278
nder 278
▁conflict 278
▁lesson 278
▁okay 278
▁pain 278
▁suddenly 278
▁threat 278
▁David 277
▁bunch 277
▁serious 277
▁trees 277
ff 276
▁ended 276
▁perform 276
▁scan 276
▁sta 276
dom 275
len 275
ran 275
▁11 275
▁larger 275
▁older 275
▁poverty 275
▁prison 275
all 274
▁Look 274
▁plants 274
▁rise 274
▁task 274
▁Po 273
▁burn 273
▁college 273
▁enter 273
▁essentially 273
▁pen 273
▁Na 272
▁above 272
▁allowed 272
▁ball 272
▁electricity 272
▁famous 272
▁hi 272
▁series 272
▁sleep 272
▁taught 272
▁cook 271
▁minute 271
aking 270
▁Du 270
▁member 270
▁wave 270
ular 269
▁14 269
▁factor 269
▁finger 269
▁fl 269
▁individuals 269
▁interact 269
▁ran 269
▁somewhere 269
▁survive 269
▁affect 268
▁crazy 268
▁doctor 268
▁mountain 268
▁paint 268
▁shown 268
▁2 267
▁eventually 267
▁jobs 267
ov 266
▁complicated 266
bar 265
bit 265
▁conditions 265
▁jump 265
▁original 265
▁argument 264
▁excited 264
▁pieces 264
▁somehow 264
nce 263
▁biology 263
▁detect 263
▁impossible 263
▁indeed 263
▁link 263
▁worse 263
▁critical 262
▁enjoy 262
▁leaders 262
▁truly 262
▁wild 262
00 261
ace 261
ham 261
▁bi 261
▁blind 261
▁extra 261
▁including 261
▁usually 261
ome 260
▁9 260
▁drugs 260
▁fat 260
▁pack 260
▁poll 260
▁studies 260
▁website 260
▁forest 259
▁models 259
▁reading 259
▁tea 259
▁trick 259
mate 258
▁bomb 258
▁creature 258
▁crisis 258
▁faster 258
▁mu 258
▁painting 258
▁policy 258
▁window 258
hor 257
ib 257
sum 257
▁Si 257
▁architecture 257
▁communities 257
▁fantastic 257
▁respect 257
▁tree 257
▁wife 257
▁architect 256
▁letter 256
▁reduce 256
▁standing 256
▁trade 256
▁training 256
▁written 256
work 255
▁17 255
▁Su 255
▁accept 255
▁address 255
▁alive 255
▁charge 255
▁Indian 254
▁Lo 254
▁floor 254
▁upon 254
▁zero 254
top 253
▁Those 253
▁afford 253
▁cheap 253
▁choose 253
▁families 253
▁press 253
▁temperature 253
ug 252
▁90 252
▁Which 252
▁killed 252
▁7 251
▁environmental 251
▁genes 251
▁meant 251
▁neurons 251
▁spin 251
▁stars 251
▁wa 251
▁web 251
cus 250
ja 250
▁himself 250
▁improve 250
▁kept 250
▁ship 250
of 249
▁Like 249
▁beauty 249
▁board 249
▁protein 249
▁surprising 249
▁unique 249
gue 248
phon 248
▁glass 248
▁lower 248
▁math 248
▁purpose 248
▁rain 248
▁smaller 248
▁enormous 247
▁patterns 247
▁range 247
▁spa 247
arian 246
cut 246
ica 246
▁His 246
▁Z 246
▁ent 246
▁rule 246
▁skills 246
▁tun 246
ew 245
▁communication 245
▁daughter 245
▁expensive 245
▁military 245
cial 244
uck 244
▁John 244
▁complete 244
▁current 244
▁decision 244
▁statistic 244
▁San 243
▁allows 243
▁freedom 243
▁income 243
han 242
▁multi 242
ade 241
▁sand 241
los 240
▁H 240
▁Mars 240
▁anywhere 240
▁familiar 240
▁influence 240
rin 239
rrow 239
▁effort 239
▁except 239
▁healthy 239
▁international 239
▁remind 239
▁solutions 239
▁su 239
▁worry 239
▁actual 238
▁clo 238
▁limit 238
▁physics 238
▁prim 238
▁town 238
▁Another 237
▁Are 237
▁Pro 237
▁cloud 237
▁roll 237
▁tissue 237
ought 236
▁earlier 236
▁humanity 236
▁seat 236
▁reflect 235
▁service 235
▁term 235
▁TV 234
▁costs 234
▁hero 234
▁lines 234
arch 233
▁serve 233
mal 232
▁Americans 232
▁climb 232
▁legs 232
▁listening 232
▁massive 232
▁mom 232
▁therefore 232
▁bone 231
▁dangerous 231
▁decisions 231
▁machines 231
▁mix 231
▁passion 231
▁production 231
▁raise 231
▁spot 231
▁trouble 231
▁violence 231
ah 230
ker 230
press 230
▁13 230
▁Ta 230
▁genome 230
▁hair 230
▁El 229
▁driving 229
▁instance 229
▁invented 229
▁significant 229
▁teaching 229
▁throughout 229
▁unit 229
▁waiting 229
▁5 228
▁greater 228
▁neuro 228
vor 227
▁anymore 227
▁rat 227
▁specific 227
▁values 227
▁Cha 226
▁aid 226
▁contain 226
▁heat 226
▁organism 226
▁performance 226
▁private 226
▁remarkable 226
▁sequence 226
▁weight 226
▁wir 226
pp 225
▁Western 225
▁accident 225
▁cultural 225
▁mistake 225
▁separate 225
▁urban 225
gram 224
stitution 224
▁becoming 224
▁camp 224
▁drink 224
▁greatest 224
▁police 224
ju 223
▁21 223
▁career 223
▁corner 223
▁vehicle 223
▁virus 223
▁walked 223
▁yeah 223
▁Today 222
▁decide 222
▁define 222
▁emotional 222
▁final 222
▁Imagine 221
▁Iran 221
▁active 221
▁base 221
▁brother 221
▁clearly 221
▁cold 221
▁describe 221
▁emerge 221
▁forth 221
▁quick 221
▁types 221
▁useful 221
ien 220
pt 220
▁author 220
▁document 220
▁instrument 220
▁intelligence 220
▁respond 220
▁surgery 220
V 219
cep 219
lop 219
pol 219
raw 219
▁University 219
▁Your 219
▁conference 219
▁expert 219
▁flying 219
▁following 219
aging 218
▁biological 218
▁decade 218
▁radio 218
▁Fa 217
▁adapt 217
▁blog 217
▁disappear 217
▁north 217
▁robots 217
ras 216
▁6 216
▁Th 216
▁effective 216
▁saving 216
▁trip 216
▁willing 216
fri 215
▁Jo 215
▁argue 215
▁bodies 215
▁edge 215
▁landscape 215
▁match 215
▁nur 215
▁partner 215
▁television 215
▁8 214
▁Ga 214
▁Two 214
▁funny 214
▁include 214
▁politics 214
hand 213
pped 213
rate 213
▁Ar 213
▁double 213
▁shark 213
▁various 213
▁70 212
▁Hu 212
▁ahead 212
▁anyway 212
▁catch 212
▁civilization 212
▁engine 212
▁generate 212
▁je 212
▁pressure 212
▁sad 212
▁technique 212
▁wide 212
▁Ge 211
▁Sun 211
▁central 211
▁directly 211
▁institutions 211
▁oh 211
▁prove 211
▁societies 211
▁summer 211
▁vote 211
Do 210
read 210
▁circle 210
▁immediately 210
▁los 210
▁loved 210
▁male 210
▁manage 210
▁race 210
▁release 210
▁services 210
▁shop 210
▁virtual 210
U 209
▁balance 209
▁boat 209
▁entrepreneur 209
▁expand 209
▁fan 209
▁layer 209
▁weapon 209
ale 208
car 208
ek 208
nk 208
wer 208
▁babies 208
▁condition 208
▁era 208
▁evolved 208
▁financial 208
▁forget 208
▁profound 208
ka 207
▁Ex 207
▁creativity 207
▁dynamic 207
▁fail 207
▁gene 207
▁random 207
▁shared 207
▁target 207
▁understood 207
▁Asia 206
▁electro 206
▁engineering 206
▁straight 206
chan 205
place 205
▁Islam 205
▁dad 205
▁gain 205
▁helped 205
▁insect 205
▁laws 205
▁professional 205
▁spoke 205
▁tri 205
ett 204
ik 204
lon 204
▁24 204
▁Br 204
▁Sc 204
▁apply 204
▁mark 204
▁muscle 204
▁networks 204
▁notion 204
▁tremendous 204
▁Ki 203
▁London 203
▁bat 203
▁below 203
▁recent 203
▁sister 203
▁wood 203
▁although 202
▁birth 202
▁consciousness 202
▁etc 202
ana 201
hang 201
▁Web 201
▁bear 201
▁consequence 201
▁interaction 201
▁method 201
▁quant 201
ort 200
▁Afghanistan 200
▁article 200
▁component 200
▁produced 200
▁shoot 200
▁sum 200
How 199
▁Gu 199
▁Lu 199
▁atmosphere 199
▁chair 199
▁demand 199
▁destroy 199
▁doctors 199
▁earth 199
▁es 199
▁obvious 199
▁wealth 199
our 198
▁City 198
▁Think 198
▁none 198
▁possibly 198
▁replace 198
▁terrible 198
ind 197
▁express 197
▁flight 197
▁interview 197
▁mid 197
▁supply 197
ose 196
▁aware 196
▁brand 196
▁closer 196
▁feature 196
▁fold 196
▁option 196
▁popular 196
▁surround 196
hop 195
ification 195
▁airplane 195
▁ancient 195
▁attract 195
▁complexity 195
▁distance 195
▁female 195
▁focused 195
▁switch 195
board 194
du 194
ily 194
za 194
▁National 194
▁bought 194
▁infrastructure 194
▁net 194
▁symbol 194
▁twice 194
wi 193
▁Chris 193
▁Pu 193
▁belief 193
▁birds 193
▁honest 193
▁inspired 193
▁mostly 193
▁played 193
▁sector 193
▁station 193
ney 192
▁apart 192
▁boys 192
▁civil 192
▁coffee 192
▁occur 192
▁spending 192
right 191
▁Middle 191
▁Richard 191
▁communicate 191
▁decades 191
▁graph 191
▁labor 191
▁laugh 191
▁mobile 191
▁motor 191
▁smell 191
▁south 191
$ 190
mission 190
off 190
term 190
▁California 190
▁Je 190
▁consumer 190
▁custom 190
▁hall 190
▁rep 190
▁uns 190
atur 189
room 189
▁Bar 189
▁determine 189
▁journal 189
Why 188
jo 188
▁Ab 188
▁auto 188
▁bottle 188
▁bridge 188
▁damage 188
▁degrees 188
▁email 188
▁memory 188
▁molecules 188
▁plane 188
▁total 188
ulation 187
▁Arab 187
▁From 187
▁capacity 187
▁combine 187
▁gather 187
▁hearing 187
▁pal 187
▁shock 187
▁workers 187
af 186
ographic 186
▁blow 186
▁continent 186
▁diagnos 186
▁failure 186
▁published 186
▁root 186
▁scientist 186
▁slightly 186
▁sustainable 186
iving 185
▁Again 185
▁Iraq 185
▁cycle 185
▁imagination 185
▁quote 185
gh 184
hen 184
▁Hi 184
▁Mu 184
▁designers 184
▁oxygen 184
▁paid 184
▁pan 184
▁commercial 183
▁desert 183
▁dinosaur 183
▁divide 183
▁eating 183
▁industrial 183
▁speaking 183
▁500 182
▁Bi 182
▁Instead 182
▁capture 182
▁lack 182
▁neighborhood 182
▁tumor 182
rry 181
script 181
▁Pe 181
▁beat 181
▁breast 181
▁citizens 181
▁fair 181
▁miss 181
▁mission 181
▁sharing 181
▁traffic 181
▁whi 181
mat 180
▁Har 180
▁classroom 180
▁giant 180
▁metaphor 180
▁neighbor 180
▁noticed 180
▁reward 180
▁tax 180
▁worst 180
head 179
▁Many 179
▁campaign 179
▁vast 179
ung 178
▁Bu 178
▁basis 178
▁crowd 178
▁harm 178
▁suit 178
typ 177
▁Am 177
▁Bill 177
▁broken 177
▁cop 177
▁dying 177
▁gotten 177
▁grade 177
▁investment 177
▁moon 177
▁rare 177
▁react 177
▁sample 177
▁studying 177
▁tough 177
▁tu 177
dding 176
dimensional 176
sel 176
▁Good 176
▁Paul 176
▁pig 176
▁seemed 176
pose 175
▁bread 175
▁definition 175
▁ecosystem 175
▁helping 175
▁highly 175
▁noise 175
▁sick 175
uff 174
▁10,000 174
▁CO 174
▁Her 174
▁competition 174
▁crash 174
▁crime 174
▁mess 174
▁negative 174
▁promise 174
▁sentence 174
ay 173
bla 173
ivity 173
▁Steve 173
▁desire 173
▁efficient 173
▁fashion 173
▁phenomenon 173
▁pop 173
based 172
programm 172
▁easily 172
▁enable 172
▁encourage 172
▁mouth 172
▁operation 172
▁tradition 172
get 171
▁Great 171
▁Pi 171
▁collaborat 171
▁colleagues 171
▁collective 171
▁correct 171
▁drawing 171
▁fill 171
▁legal 171
▁outcome 171
▁profit 171
▁diversity 170
▁gold 170
▁island 170
▁museum 170
▁stopped 170
▁turning 170
bal 169
▁Mal 169
▁Mc 169
▁Nigeria 169
▁Pol 169
▁conduct 169
▁mal 169
▁particles 169
▁river 169
▁speech 169
▁tag 169
die 168
▁afraid 168
▁algorithm 168
▁electric 168
▁extreme 168
▁farmers 168
▁figured 168
▁flower 168
▁gap 168
▁gun 168
▁horse 168
▁radical 168
▁restaurant 168
ological 167
stock 167
▁300 167
▁Ad 167
▁Japan 167
▁More 167
▁addition 167
▁application 167
▁aspect 167
▁background 167
▁lay 167
▁possibility 167
▁recover 167
▁trend 167
▁copy 166
▁differently 166
▁fully 166
▁joy 166
▁master 166
▁nearly 166
▁necessarily 166
▁opportunities 166
▁party 166
▁responsibility 166
▁scene 166
lit 165
ory 165
▁Muslim 165
▁Russia 165
▁contact 165
▁electronic 165
▁expression 165
▁fairly 165
▁patent 165
▁president 165
▁tie 165
▁yellow 165
ki 164
ria 164
▁bin 164
▁brilliant 164
▁missing 164
▁religious 164
▁roof 164
▁ski 164
▁stream 164
▁tube 164
meter 163
▁Second 163
▁attempt 163
▁disorder 163
▁foreign 163
▁graduate 163
▁passed 163
▁reveal 163
▁stem 163
▁technical 163
craft 162
▁core 162
▁grand 162
▁host 162
▁remote 162
▁surprise 162
▁tail 162
▁See 161
▁Take 161
▁band 161
▁collapse 161
▁driver 161
▁novel 161
▁sexual 161
▁spirit 161
gal 160
▁Mi 160
▁coast 160
▁fascinating 160
▁flat 160
▁insight 160
▁monkey 160
▁pat 160
▁remove 160
▁suffering 160
▁whale 160
pping 159
▁Australia 159
▁Facebook 159
▁Very 159
▁avoid 159
▁epi 159
▁forever 159
▁infect 159
▁mill 159
▁newspaper 159
▁sto 159
▁British 158
▁Mr 158
▁Wa 158
▁coral 158
▁dig 158
▁election 158
▁gift 158
▁magazine 158
▁truck 158
▁universal 158
air 157
ied 157
ya 157
zone 157
▁1,000 157
▁French 157
▁edit 157
▁extend 157
▁husband 157
▁lucky 157
▁metal 157
▁mini 157
▁spec 157
▁strength 157
J 156
atom 156
ley 156
ob 156
▁Actually 156
▁curve 156
▁debate 156
▁disaster 156
▁dollar 156
▁leading 156
▁meat 156
▁reaction 156
▁related 156
glo 155
las 155
ography 155
▁chain 155
▁circuit 155
▁counter 155
▁creation 155
▁display 155
▁estimate 155
▁mathematics 155
▁slowly 155
▁wisdom 155
avi 154
lies 154
▁Green 154
▁adopt 154
▁bird 154
▁drag 154
▁easier 154
▁importantly 154
▁ni 154
▁proud 154
▁Dan 153
▁Wal 153
▁advantage 153
▁classic 153
▁economist 153
▁interface 153
▁necessary 153
▁Big 152
▁discovery 152
▁egg 152
▁er 152
▁extinct 152
▁fresh 152
▁hell 152
▁honor 152
▁optim 152
▁previous 152
▁repeat 152
itude 151
life 151
nom 151
▁Che 151
▁Over 151
▁Par 151
▁Tu 151
▁bubble 151
▁budget 151
▁click 151
▁dinner 151
▁fossil 151
▁holding 151
▁opposite 151
▁puzzle 151
▁raised 151
▁weird 151
atory 150
hu 150
lung 150
mine 150
▁Sometimes 150
▁alternative 150
▁broad 150
▁chose 150
▁cow 150
▁direct 150
▁finish 150
▁mouse 150
▁platform 150
▁professor 150
▁sorry 150
▁stress 150
▁translate 150
▁unlike 150
ank 149
net 149
win 149
▁AIDS 149
▁Art 149
▁caught 149
▁identity 149
▁independent 149
▁pet 149
▁prefer 149
▁regular 149
▁row 149
▁sudden 149
▁tech 149
illa 148
▁Did 148
▁bright 148
▁commit 148
▁concentrat 148
▁conscious 148
▁garden 148
▁hunt 148
▁invention 148
▁location 148
▁rot 148
▁typical 148
▁writer 148
ina 147
sta 147
▁45 147
▁capable 147
▁childhood 147
▁date 147
▁deeply 147
▁dolphin 147
▁everyday 147
▁fighting 147
▁finished 147
▁leaving 147
▁practical 147
▁ultimately 147
cop 146
▁European 146
▁Once 146
▁Un 146
▁Wi 146
▁agriculture 146
▁cartoon 146
▁concerned 146
▁entirely 146
▁iron 146
▁motion 146
▁operate 146
▁organic 146
▁responsible 146
▁smile 146
This 145
je 145
▁George 145
▁coal 145
▁cognitive 145
▁consumption 145
▁cosm 145
▁degree 145
▁error 145
▁prior 145
▁tape 145
▁transformation 145
grat 144
ko 144
power 144
▁Darwin 144
▁Everybody 144
▁foundation 144
▁grandmother 144
▁mechanism 144
▁meters 144
▁molecule 144
▁penguin 144
maker 143
pie 143
▁Ben 143
▁Egypt 143
▁Kenya 143
▁May 143
▁Sp 143
▁Wo 143
▁border 143
▁despite 143
▁electrical 143
▁factory 143
▁grab 143
▁held 143
▁ill 143
▁intelligent 143
▁mode 143
▁odd 143
▁perception 143
▁perfectly 143
▁pocket 143
▁round 143
▁studied 143
▁taste 143
▁teenage 143
▁versus 143
30 142
hin 142
uch 142
▁However 142
▁Mexico 142
▁battle 142
▁bill 142
▁constantly 142
▁string 142
▁struggle 142
▁topic 142
▁warming 142
app 141
ogen 141
▁Per 141
▁crack 141
▁demonstrate 141
▁empower 141
▁followed 141
▁kn 141
▁opened 141
▁opinion 141
▁pair 141
▁pleasure 141
▁quiet 141
▁satellite 141
▁stuck 141
▁trained 141
If 140
graph 140
kin 140
point 140
▁Brazil 140
▁Charles 140
▁artificial 140
▁claim 140
▁clip 140
▁galaxies 140
▁managed 140
▁mirror 140
▁nano 140
▁operating 140
▁pounds 140
▁sugar 140
▁surgeon 140
▁survival 140
▁ver 140
▁Man 139
▁Washington 139
▁ideal 139
▁intellectual 139
▁laptop 139
▁multiple 139
▁rocket 139
▁seriously 139
▁suffer 139
▁talent 139
▁theater 139
lam 138
pit 138
spect 138
▁Te 138
▁equivalent 138
▁ethic 138
▁faith 138
▁lift 138
▁logic 138
▁lunch 138
▁politician 138
▁precise 138
▁unfortunately 138
ail 137
style 137
▁Have 137
▁King 137
▁bag 137
▁dozen 137
▁galaxy 137
▁leg 137
▁mathematical 137
▁vaccine 137
▁wearing 137
figur 136
▁channel 136
▁closed 136
▁discussion 136
▁failed 136
▁grain 136
▁majority 136
▁monitor 136
▁promot 136
▁rev 136
▁volunteer 136
gang 135
▁Tim 135
▁compared 135
▁contract 135
▁distribution 135
▁highest 135
▁normally 135
▁score 135
▁stone 135
▁succeed 135
▁victim 135
gel 134
over 134
test 134
▁400 134
▁Korea 134
▁Va 134
▁chicken 134
▁clinic 134
▁comment 134
▁compare 134
▁evil 134
▁exchange 134
▁grid 134
▁hidden 134
▁invisible 134
▁involve 134
▁peak 134
▁pill 134
▁rap 134
▁resource 134
▁rural 134
oh 133
scale 133
stood 133
▁MIT 133
▁Mil 133
▁chart 133
▁described 133
▁disc 133
▁frame 133
▁hopefully 133
▁increasingly 133
▁losing 133
▁malaria 133
▁ordinary 133
▁origin 133
▁planning 133
▁worried 133
Ju 132
well 132
▁Israel 132
▁dress 132
▁fourth 132
▁heavy 132
▁hurt 132
▁oppos 132
▁paying 132
▁wheel 132
Hey 131
Yes 131
fra 131
nis 131
▁35 131
▁Einstein 131
▁Life 131
▁Ze 131
▁attach 131
▁awful 131
▁employ 131
▁extract 131
▁fell 131
▁fellow 131
▁illness 131
▁interpret 131
▁load 131
▁mentioned 131
▁narrative 131
▁relation 131
▁setting 131
dem 130
tail 130
▁Does 130
▁Michael 130
▁Pla 130
▁Three 130
▁discuss 130
▁dry 130
▁limited 130
▁nervous 130
▁sport 130
▁weather 130
ounce 129
▁100,000 129
▁Britain 129
▁assume 129
▁clinical 129
▁construction 129
▁dir 129
▁epidemic 129
▁equation 129
▁essential 129
▁feedback 129
▁parent 129
▁select 129
▁swim 129
▁vessel 129
berg 128
bin 128
▁Audience 128
▁Island 128
▁Other 128
▁dealing 128
▁float 128
▁incentive 128
▁inner 128
▁launch 128
▁otherwise 128
▁pray 128
▁strategy 128
▁stupid 128
▁university 128
ibility 127
town 127
vision 127
▁belong 127
▁businesses 127
▁covered 127
▁fiber 127
▁filled 127
▁hyper 127
▁invited 127
▁justice 127
▁killing 127
▁leader 127
▁mention 127
▁publish 127
▁pump 127
▁treated 127
▁unless 127
▁viruses 127
▁School 126
▁corruption 126
▁depression 126
▁emerging 126
▁explanation 126
▁flies 126
▁immun 126
▁lawyer 126
▁lifetime 126
▁refer 126
▁relative 126
aries 125
rage 125
water 125
▁Japanese 125
▁Times 125
▁abstract 125
▁according 125
▁celebrate 125
▁contribute 125
▁curious 125
▁distribut 125
▁equipment 125
▁exam 125
▁introduce 125
▁review 125
▁teeth 125
▁tribe 125
▁2,000 124
▁Canada 124
▁Sam 124
▁Would 124
▁currently 124
▁graphic 124
▁identify 124
▁launched 124
▁marriage 124
▁married 124
▁presentation 124
▁reform 124
▁roughly 124
▁tomorrow 124
ua 123
▁Gra 123
▁associated 123
▁bow 123
▁chemistry 123
▁exercise 123
▁fu 123
▁leadership 123
▁silk 123
▁surprised 123
rat 122
tract 122
▁Anyway 122
▁Pakistan 122
▁Pre 122
▁Twitter 122
▁admit 122
▁battery 122
▁construct 122
▁importance 122
▁sweet 122
▁Center 121
▁England 121
▁Fo 121
▁accurate 121
▁advance 121
▁chip 121
▁consume 121
▁flip 121
▁liquid 121
▁poem 121
▁survey 121
▁und 121
▁yesterday 121
nny 120
▁150 120
▁Institute 120
▁NASA 120
▁actor 120
▁conclusion 120
▁empty 120
▁instant 120
▁kick 120
▁kilometers 120
▁shut 120
▁solid 120
▁tall 120
▁title 120
▁transition 120
▁worldwide 120
That 119
amb 119
lia 119
sensor 119
tech 119
▁Air 119
▁Street 119
▁command 119
▁considered 119
▁establish 119
▁hack 119
▁k 119
▁physicist 119
▁plate 119
▁property 119
▁terror 119
▁urge 119
digit 118
lan 118
mino 118
mmer 118
▁appropriate 118
▁bull 118
▁combination 118
▁comfortable 118
▁concern 118
▁daily 118
▁effectively 118
▁gla 118
▁lie 118
▁lies 118
▁maintain 118
▁orbit 118
▁producing 118
▁robotic 118
▁season 118
▁skill 118
▁status 118
▁steel 118
He 117
bur 117
▁75 117
▁arrived 117
▁convert 117
▁credit 117
▁decline 117
▁evolutionary 117
▁existence 117
▁hire 117
▁inspiration 117
▁passionate 117
▁peer 117
▁shall 117
▁trillion 117
▁Bra 116
▁Cr 116
▁Everything 116
▁James 116
▁affected 116
▁client 116
▁invent 116
▁joke 116
▁lecture 116
▁molecular 116
▁mortality 116
▁observe 116
▁possibilities 116
▁propose 116
▁sculpture 116
▁spectrum 116
sse 115
▁99 115
▁President 115
▁absolute 115
▁cutting 115
▁director 115
▁distinct 115
▁emissions 115
▁illusion 115
▁initial 115
▁kitchen 115
▁official 115
▁protection 115
▁reference 115
▁sphere 115
▁tank 115
▁valuable 115
bel 114
ease 114
metri 114
mut 114
print 114
ui 114
▁Er 114
▁Frank 114
▁Science 114
▁Thomas 114
▁alt 114
▁broke 114
▁elephant 114
▁facing 114
▁filter 114
▁height 114
▁ignore 114
▁manipulat 114
▁perceive 114
▁technological 114
▁underneath 114
Please 113
upp 113
▁Fe 113
▁Last 113
▁Rob 113
▁clever 113
▁convince 113
▁encounter 113
▁fake 113
▁medium 113
▁opera 113
▁pure 113
▁radiation 113
▁sch 113
▁split 113
▁studio 113
▁variety 113
stall 112
▁Human 112
▁alien 112
▁analysis 112
▁bike 112
▁icon 112
▁loud 112
▁occasion 112
▁organized 112
▁primary 112
▁reef 112
▁regard 112
▁researchers 112
50 111
can 111
house 111
lution 111
source 111
ura 111
▁Harvard 111
▁Natur 111
▁Pri 111
▁Will 111
▁carefully 111
▁court 111
▁dish 111
▁mammal 111
▁privilege 111
▁prototype 111
▁psycho 111
▁receive 111
▁wrap 111
In 110
ani 110
flu 110
load 110
part 110
pper 110
▁2000 110
▁2008 110
▁Could 110
▁balloon 110
▁calculate 110
▁collaboration 110
▁convinced 110
▁historical 110
▁hotel 110
▁increasing 110
▁introduced 110
▁pipe 110
▁reverse 110
▁sight 110
▁thin 110
▁transport 110
▁van 110
back 109
tempo 109
▁Germany 109
▁Pacific 109
▁Sea 109
▁analog 109
▁bias 109
▁cortex 109
▁embrace 109
▁internal 109
▁prepared 109
▁quarter 109
▁relatively 109
▁spider 109
▁toilet 109
▁volume 109
▁vulnerable 109
Wow 108
▁Robert 108
▁angle 108
▁boom 108
▁doubt 108
▁efficiency 108
▁exception 108
▁ingredient 108
▁label 108
▁nerve 108
▁percentage 108
▁pile 108
▁specifically 108
▁strip 108
▁suck 108
▁unusual 108
▁wake 108
20 107
burg 107
nde 107
org 107
troph 107
▁Chi 107
▁Come 107
▁Comp 107
▁Ph 107
▁Wikipedia 107
▁advanced 107
▁appreciate 107
▁comfort 107
▁definitely 107
▁employees 107
▁guide 107
▁integrate 107
▁knee 107
▁loop 107
▁plus 107
▁properties 107
▁relate 107
▁sophisticated 107
▁spring 107
Y 106
stream 106
▁Bank 106
▁Congress 106
▁branch 106
▁computation 106
▁diver 106
▁fruit 106
▁gay 106
▁gravity 106
▁hydrogen 106
▁paradigm 106
▁participate 106
▁piano 106
▁rational 106
▁safety 106
▁statement 106
▁winter 106
down 105
▁Red 105
▁academic 105
▁church 105
▁collection 105
▁destruction 105
▁hol 105
▁lady 105
▁observation 105
▁received 105
11 104
Look 104
bble 104
foot 104
fusion 104
iness 104
minister 104
▁3,000 104
▁Cap 104
▁Gold 104
▁Project 104
▁acid 104
▁critic 104
▁cyber 104
▁framework 104
▁infinite 104
▁limb 104
▁management 104
▁nest 104
▁panel 104
udi 103
▁1960 103
▁German 103
▁YouTube 103
▁assumption 103
▁fortunate 103
▁hide 103
▁initiat 103
▁pollution 103
▁section 103
▁severe 103
▁sustain 103
▁symptom 103
▁tip 103
▁typically 103
▁variation 103
▁zoom 103
road 102
verse 102
▁Fr 102
▁Francisco 102
▁Tom 102
▁apartment 102
▁bug 102
▁cable 102
▁chapter 102
▁chimpanzee 102
▁democratic 102
▁exploration 102
▁generally 102
▁habit 102
▁healthcare 102
▁plot 102
▁rapidly 102
ken 101
profit 101
rad 101
tag 101
▁Cla 101
▁Los 101
▁biologist 101
▁cup 101
▁drill 101
▁dropped 101
▁educate 101
▁judge 101
▁meaningful 101
▁microbes 101
▁poet 101
▁productive 101
▁psychology 101
▁suppose 101
▁transplant 101
atter 100
fish 100
long 100
rand 100
ridge 100
stand 100
▁1990 100
▁Child 100
▁Christian 100
▁Health 100
▁Law 100
▁Sta 100
▁afternoon 100
▁circumstances 100
▁compar 100
▁danger 100
▁der 100
▁firm 100
▁iPhone 100
▁length 100
▁license 100
▁pitch 100
▁prize 100
▁slave 100
▁sunlight 100
▁ultimate 100
▁z 100
anthrop 99
bare 99
lash 99
pot 99
zi 99
▁Also 99
▁Boy 99
▁awareness 99
▁behave 99
▁cheat 99
▁club 99
▁confront 99
▁exact 99
▁hip 99
▁hoping 99
▁improvement 99
▁infection 99
▁instruction 99
▁mosquito 99
▁predator 99
▁telescope 99
▁therapy 99
▁visible 99
Okay 98
break 98
del 98
é 98
▁22 98
▁Arch 98
▁Bur 98
▁Four 98
▁GDP 98
▁Joe 98
▁Turk 98
▁Women 98
▁applied 98
▁atoms 98
▁intention 98
▁lens 98
▁milk 98
▁occurred 98
▁phenomena 98
▁regret 98
▁rescue 98
▁stretch 98
▁5,000 97
▁Gulf 97
▁Since 97
▁State 97
▁attitude 97
▁comic 97
▁computing 97
▁correspond 97
▁hyp 97
▁mathematician 97
▁relevant 97
▁telephone 97
▁thick 97
view 96
▁Ah 96
▁Gar 96
▁Mac 96
▁criminal 96
▁dramatic 96
▁habitat 96
▁motivation 96
▁snow 96
▁spiritual 96
▁tonight 96
▁transfer 96
▁wireless 96
Yeah 95
assemble 95
och 95
shirt 95
wood 95
▁2007 95
▁Jack 95
▁activities 95
▁commitment 95
▁courage 95
▁deserve 95
▁empathy 95
▁heaven 95
▁innovative 95
▁mechanical 95
▁poetry 95
▁unexpected 95
▁witness 95
▁Boston 94
▁Min 94
▁US 94
▁Yet 94
▁analyze 94
▁birthday 94
▁clothes 94
▁flash 94
▁frog 94
▁gentlemen 94
▁irre 94
▁manufacture 94
▁manufacturing 94
▁reserve 94
▁shame 94
▁smoke 94
80 93
ffer 93
pass 93
▁Cor 93
▁Es 93
▁compete 93
▁controlled 93
▁discipline 93
▁geo 93
▁govern 93
▁harvest 93
▁implement 93
▁phrase 93
▁retire 93
▁transmit 93
▁transportation 93
▁violent 93
ala 92
position 92
wal 92
▁2010 92
▁GPS 92
▁Museum 92
▁east 92
▁genius 92
▁intense 92
▁lifestyle 92
▁parallel 92
,500 91
Sahara 91
oid 91
ori 91
osphere 91
▁France 91
▁Gal 91
▁Ko 91
▁Mark 91
▁Peter 91
▁Spe 91
▁Tra 91
▁Union 91
▁Valley 91
▁While 91
▁challenging 91
▁clock 91
▁deploy 91
▁kilo 91
▁literature 91
▁magnetic 91
▁polio 91
▁repair 91
▁revenue 91
▁selection 91
▁steal 91
▁vegetable 91
igen 90
unclear 90
▁1980 90
▁Chicago 90
▁Paris 90
▁Perhaps 90
▁agent 90
▁exhibition 90
▁implant 90
▁kit 90
▁liberal 90
▁motivate 90
▁presence 90
▁regime 90
▁trace 90
▁underwater 90
harm 89
▁23 89
▁Adam 89
▁Basically 89
▁Haiti 89
▁Inter 89
▁Nobody 89
▁September 89
▁Ya 89
▁alter 89
▁favor 89
▁gar 89
▁hook 89
▁horrible 89
▁inject 89
▁interactive 89
▁microscope 89
▁mimic 89
▁philosophy 89
▁salt 89
▁session 89
▁storm 89
▁swimming 89
▁weigh 89
Wo 88
cher 88
ete 88
war 88
▁Unfortunately 88
▁advice 88
▁concrete 88
▁constant 88
▁conventional 88
▁dancing 88
▁diagram 88
▁falls 88
▁intervention 88
▁luck 88
▁murder 88
▁psychological 88
▁ritual 88
▁sensitive 88
▁settle 88
▁shadow 88
▁spill 88
▁staff 88
kind 87
leg 87
▁Congo 87
▁asteroid 87
▁centuries 87
▁confidence 87
▁finance 87
▁golf 87
▁gray 87
▁greenhouse 87
▁laboratory 87
▁library 87
▁mushroom 87
▁orchestra 87
▁pad 87
▁permanent 87
▁somewhat 87
▁suspect 87
▁toxic 87
▁unknown 87
Be 86
gar 86
ix 86
ock 86
▁Act 86
▁Obama 86
▁absorb 86
▁accomplish 86
▁boring 86
▁cents 86
▁complain 86
▁depth 86
▁escape 86
▁evolve 86
▁flew 86
▁footprint 86
▁identical 86
▁knock 86
▁organize 86
▁physician 86
▁sail 86
▁solving 86
acre 85
last 85
rich 85
▁Abou 85
▁Rwanda 85
▁breed 85
▁bulb 85
▁causing 85
▁frankly 85
▁globe 85
▁pace 85
▁polar 85
▁preserve 85
▁reduction 85
▁resistance 85
▁tele 85
▁vertical 85
So 84
box 84
volving 84
▁2005 84
▁Six 84
▁TEDTalk 84
▁authority 84
▁bicycle 84
▁exponential 84
▁illegal 84
▁instinct 84
▁optimistic 84
▁pea 84
▁sustainability 84
▁till 84
▁ultra 84
azi 83
class 83
code 83
lb 83
▁27 83
▁Apple 83
▁Bang 83
▁Eastern 83
▁Uganda 83
▁astonishing 83
▁clue 83
▁conclude 83
▁defend 83
▁fluid 83
▁furniture 83
▁gut 83
▁humor 83
▁judgment 83
▁plug 83
▁pregnant 83
▁rein 83
▁silence 83
crow 82
hl 82
lied 82
rie 82
▁Bush 82
▁Christ 82
▁Everyone 82
▁Gr 82
▁Latin 82
▁White 82
▁addict 82
▁agenda 82
▁careful 82
▁chocolate 82
▁continuous 82
▁corn 82
▁department 82
▁fabric 82
▁inspire 82
▁origami 82
▁proportion 82
▁rede 82
▁rhythm 82
▁rush 82
▁strand 82
aught 81
communica 81
▁Pen 81
▁Prize 81
▁Something 81
▁Tri 81
▁chest 81
▁contrast 81
▁earthquake 81
▁false 81
▁illustrate 81
▁measuring 81
▁migrat 81
▁mystery 81
▁obesity 81
▁obsessed 81
▁painful 81
▁rebuild 81
▁renewable 81
▁secure 81
boot 80
ille 80
product 80
▁65 80
▁Christmas 80
▁Gi 80
▁Im 80
▁Park 80
▁Sch 80
▁autism 80
▁disgust 80
▁entertainment 80
▁hunger 80
▁inventor 80
▁mobil 80
▁pyramid 80
▁rising 80
▁romantic 80
▁strike 80
▁sweat 80
▁trigger 80
▁vital 80
12 79
aff 79
ball 79
ggle 79
lei 79
related 79
urf 79
▁600 79
▁Brown 79
▁Next 79
▁Soviet 79
▁Sweden 79
▁Texas 79
▁attend 79
▁column 79
▁economies 79
▁exploit 79
▁exploring 79
▁grandfather 79
▁inspiring 79
▁marine 79
▁nowhere 79
▁obstacle 79
▁philosopher 79
▁poison 79
▁procedure 79
▁providing 79
▁psychologist 79
▁shelter 79
▁tap 79
called 78
flat 78
iff 78
▁DH 78
▁Finally 78
▁Foundation 78
▁Ghana 78
▁House 78
▁authentic 78
▁automatically 78
▁barrier 78
▁calculation 78
▁carried 78
▁defense 78
▁distant 78
▁embedded 78
▁enemy 78
▁gesture 78
▁happier 78
▁hydro 78
▁incident 78
▁invite 78
▁narrow 78
▁particle 78
▁portrait 78
▁ridiculous 78
▁rip 78
▁route 78
▁tight 78
ello 77
illion 77
pound 77
rang 77
▁26 77
▁Before 77
▁Ethiopia 77
▁Jim 77
▁Nation 77
▁Pra 77
▁Stanford 77
▁activist 77
▁cluster 77
▁concert 77
▁description 77
▁download 77
▁facial 77
▁flood 77
▁herself 77
▁household 77
▁ladies 77
▁leap 77
▁optic 77
▁shake 77
▁slum 77
▁symmetry 77
▁worm 77
Ma 76
Mo 76
are 76
dollar 76
letting 76
scribe 76
▁1970 76
▁Greek 76
▁Higgs 76
▁Hill 76
▁Kar 76
▁Philip 76
▁Remember 76
▁Revolution 76
▁backwards 76
▁charity 76
▁dramatically 76
▁extent 76
▁freak 76
▁productivity 76
▁recommend 76
▁sharp 76
▁simplicity 76
▁struck 76
▁terrorist 76
▁yield 76
bt 75
conscious 75
iger 75
motiv 75
sex 75
▁2009 75
▁36 75
▁High 75
▁Number 75
▁dioxide 75
▁frozen 75
▁housing 75
▁indicate 75
▁orange 75
▁partnership 75
▁pretend 75
▁punish 75
▁request 75
▁stroke 75
▁ticket 75
▁trait 75
ax 74
level 74
▁1950 74
▁2004 74
▁Den 74
▁Girl 74
▁Microsoft 74
▁River 74
▁Scott 74
▁accessible 74
▁acquire 74
▁advertising 74
▁aircraft 74
▁candidate 74
▁chromosome 74
▁database 74
▁dignity 74
▁fascinated 74
▁miracle 74
▁properly 74
▁utter 74
ago 73
plan 73
rum 73
▁Amazon 73
▁General 73
▁Manhattan 73
▁Martin 73
▁Saturn 73
▁Super 73
▁adjust 73
▁conservation 73
▁consistent 73
▁copyright 73
▁diabetes 73
▁drove 73
▁interconnect 73
▁intuition 73
▁mutation 73
▁overcome 73
▁rail 73
▁reject 73
▁reputation 73
▁restore 73
▁rope 73
▁sauce 73
▁silent 73
▁skeleton 73
▁sketch 73
▁skull 73
▁slice 73
born 72
itter 72
lief 72
omics 72
▁32 72
▁Derek 72
▁Hans 72
▁Hol 72
▁William 72
▁adventure 72
▁brown 72
▁conservative 72
▁corporate 72
▁domestic 72
▁fiction 72
▁formula 72
▁intuitiv 72
▁memories 72
▁neither 72
▁pandemic 72
▁plenty 72
▁recognition 72
▁sandwich 72
▁spectacular 72
▁subtle 72
▁suicide 72
▁tragedy 72
▁verb 72
▁wheelchair 72
aus 71
how 71
star 71
wort 71
▁CEO 71
▁Januar 71
▁NGO 71
▁Nothing 71
▁Olympic 71
▁Space 71
▁afterwards 71
▁arrest 71
▁arrive 71
▁awesome 71
▁citizen 71
▁fulfill 71
▁granted 71
▁honey 71
▁hormone 71
▁links 71
▁passen 71
▁simulation 71
▁slip 71
▁smooth 71
▁synthetic 71
▁transcend 71
▁whistle 71
design 70
grow 70
hob 70
ji 70
ok 70
▁Mag 70
▁Ocean 70
▁Oxford 70
▁Research 70
▁Vietnam 70
▁Wall 70
▁Was 70
▁curiosity 70
▁demonstration 70
▁disagree 70
▁elsewhere 70
▁fortune 70
▁governance 70
▁mono 70
▁senior 70
▁shore 70
▁ugly 70
front 69
pause 69
third 69
▁0 69
▁Angeles 69
▁Au 69
▁Aus 69
▁Black 69
▁Blue 69
▁Democrat 69
▁International 69
▁Jewish 69
▁Mill 69
▁Nobel 69
▁Titan 69
▁angry 69
▁boundaries 69
▁commun 69
▁compound 69
▁guarantee 69
▁impos 69
▁leak 69
▁leverage 69
▁probability 69
▁protest 69
▁rainforest 69
▁raising 69
▁scratch 69
▁substance 69
fall 68
ville 68
▁Alex 68
▁Grand 68
▁appeal 68
▁beetle 68
▁bond 68
▁comparison 68
▁decrease 68
▁dedicated 68
▁disrupt 68
▁domain 68
▁external 68
▁football 68
▁fragment 68
▁keyboard 68
▁legacy 68
▁manifest 68
▁meditat 68
▁neu 68
▁scream 68
▁textbook 68
▁tired 68
elle 67
frequent 67
technology 67
uh 67
▁'60 67
▁Alzheimer 67
▁Atlantic 67
▁Bay 67
▁Ku 67
▁Smith 67
▁arrange 67
▁blame 67
▁blank 67
▁breakthrough 67
▁chaos 67
▁chief 67
▁colleague 67
▁constrain 67
▁cooperation 67
▁desperate 67
▁engaging 67
▁hardware 67
▁kiss 67
▁profile 67
▁scholar 67
▁smallpox 67
▁twist 67
industrie 66
second 66
stern 66
strategie 66
witz 66
▁2003 66
▁Char 66
▁Gene 66
▁Matt 66
▁Rock 66
▁agricultural 66
▁automobile 66
▁crucial 66
▁crystal 66
▁excuse 66
▁fabulous 66
▁fraction 66
▁hungry 66
▁impression 66
▁installation 66
▁legislat 66
▁neural 66
▁portion 66
▁recipe 66
▁refugee 66
▁sensory 66
▁stereo 66
▁stunt 66
▁tick 66
200 65
ami 65
lethal 65
tel 65
▁2006 65
▁28 65
▁95 65
▁Howard 65
▁abandon 65
▁burst 65
▁capita 65
▁depressed 65
▁emergency 65
▁ethnic 65
▁exposed 65
▁facility 65
▁federal 65
▁translation 65
▁transparent 65
▁trash 65
▁vacuum 65
▁vagina 65
▁volcan 65
arm 64
dung 64
kle 64
tz 64
uk 64
wo 64
▁250 64
▁Design 64
▁Hollywood 64
▁June 64
▁Long 64
▁Turn 64
▁animation 64
▁announced 64
▁assignment 64
▁barrel 64
▁baseball 64
▁cheese 64
▁enhance 64
▁ensure 64
▁expedition 64
▁leather 64
▁mag 64
▁magnet 64
▁medication 64
▁mit 64
▁naked 64
▁policies 64
▁psychiatri 64
▁recycle 64
▁resolve 64
▁sensation 64
▁torture 64
▁welcome 64
atar 63
ich 63
link 63
lust 63
uz 63
wir 63
▁'70 63
▁Bob 63
▁Cambridge 63
▁Israeli 63
▁MRI 63
▁Port 63
▁Spa 63
▁alarm 63
▁bribe 63
▁bucks 63
▁consult 63
▁corporation 63
▁export 63
▁hin 63
▁neat 63
▁plain 63
▁punch 63
▁ruin 63
▁tragic 63
▁variable 63
▁vulnerability 63
ali 62
century 62
gan 62
hai 62
hrew 62
j 62
mie 62
not 62
sky 62
station 62
▁Bronx 62
▁Florida 62
▁Ford 62
▁Gore 62
▁Julia 62
▁aesthetic 62
▁bump 62
▁colony 62
▁devil 62
▁diverse 62
▁drift 62
▁ecological 62
▁eliminate 62
▁prepare 62
▁transparency 62
▁underground 62
100 61
Co 61
anne 61
assembly 61
face 61
▁2001 61
▁Back 61
▁Department 61
▁Gates 61
▁KB 61
▁Op 61
▁Should 61
▁Watch 61
▁buried 61
▁contribution 61
▁creator 61
▁disappoint 61
▁district 61
▁disturb 61
▁essen 61
▁expectancy 61
▁flexible 61
▁grave 61
▁injury 61
▁neck 61
▁orphan 61
▁passive 61
▁reinvent 61
▁relax 61
Ha 60
pel 60
▁Global 60
▁Hy 60
▁October 60
▁Ray 60
▁Voice 60
▁dominant 60
▁inevitable 60
▁insurance 60
▁jellyfish 60
▁linear 60
▁mask 60
▁paralyzed 60
▁participant 60
▁pioneer 60
▁profession 60
▁qualities 60
▁rapid 60
▁refuse 60
▁sacred 60
▁scenario 60
▁shrimp 60
▁thrill 60
Re 59
ein 59
▁Camp 59
▁Minister 59
▁Organ 59
▁Somebody 59
▁Talk 59
▁Tony 59
▁Ver 59
▁array 59
▁attribute 59
▁convey 59
▁dialogue 59
▁dumb 59
▁interior 59
▁methane 59
▁neuroscience 59
▁nutrition 59
▁purchase 59
▁reconstruct 59
▁resilience 59
▁retina 59
▁robust 59
▁schizophren 59
▁skeptic 59
▁snake 59
▁snap 59
▁struggling 59
Where 58
eign 58
ht 58
modul 58
resistant 58
▁Arctic 58
▁Februar 58
▁Newton 58
▁Tell 58
▁Through 58
▁Ti 58
▁autonomous 58
▁contemporary 58
▁cousin 58
▁currency 58
▁explode 58
▁glamorous 58
▁horizon 58
▁leaf 58
▁mysterious 58
▁signature 58
▁tackle 58
▁theoretical 58
▁trajectory 58
▁universities 58
bie 57
bot 57
cker 57
kan 57
minute 57
▁85 57
▁Central 57
▁Hall 57
▁Obviously 57
▁PM 57
▁TEDx 57
▁Third 57
▁accelerate 57
▁biodiversity 57
▁compromise 57
▁dictator 57
▁dilemma 57
▁expansion 57
▁paradox 57
▁phantom 57
▁pharmaceutical 57
▁prosthetic 57
▁supermarket 57
▁syndrome 57
▁ubiquitous 57
▁whatsoever 57
fen 56
generating 56
theorie 56
▁Fl 56
▁Henry 56
▁Jesus 56
▁LED 56
▁Lab 56
▁Ly 56
▁Moore 56
▁Out 56
▁Taliban 56
▁Yemen 56
▁audio 56
▁burden 56
▁ceiling 56
▁clay 56
▁cube 56
▁curriculum 56
▁garbage 56
▁generous 56
▁helicopter 56
▁hier 56
▁primitive 56
▁pulse 56
▁regulation 56
▁routine 56
▁tattoo 56
▁threshold 56
▁tsunami 56
▁unbelievable 56
▁uncertainty 56
cellular 55
control 55
enden 55
engineer 55
ette 55
haus 55
lau 55
synchron 55
wind 55
▁agencies 55
▁amateur 55
▁confident 55
▁defeat 55
▁elderly 55
▁extension 55
▁fragile 55
▁glue 55
▁hypothesis 55
▁identified 55
▁immediate 55
▁improving 55
▁rabbi 55
▁restrict 55
▁sink 55
▁wider 55
American 54
lose 54
version 54
▁120 54
▁App 54
▁Bangladesh 54
▁Brian 54
▁Homo 54
▁Italian 54
▁Jeff 54
▁Neanderthal 54
▁Open 54
▁Rio 54
▁Sir 54
▁acknowledge 54
▁alcohol 54
▁augment 54
▁breakfast 54
▁cotton 54
▁dopamine 54
▁expertise 54
▁iPod 54
▁immense 54
▁inequality 54
▁oxytocin 54
▁primarily 54
▁reducing 54
▁spontaneous 54
▁triangle 54
hm 53
interest 53
isten 53
looking 53
▁Abraham 53
▁Andrew 53
▁Arm 53
▁CD 53
▁Church 53
▁Free 53
▁Koran 53
▁Lego 53
▁Star 53
▁Stephen 53
▁cliff 53
▁cricket 53
▁diamond 53
▁elegant 53
▁entropy 53
▁genocide 53
▁humbl 53
▁phosphorus 53
▁serving 53
▁tendency 53
Wait 52
q 52
▁December 52
▁Delhi 52
▁Jane 52
▁Johnson 52
▁Lang 52
▁Lincoln 52
▁Miss 52
▁Redwood 52
▁Tanzania 52
▁Und 52
▁acoustic 52
▁anticipate 52
▁aspiration 52
▁carpet 52
▁diplomat 52
▁distinguish 52
▁facilities 52
▁grandchildren 52
▁marvel 52
▁navigate 52
▁neutral 52
▁overwhelming 52
▁proposal 52
▁sacrifice 52
▁shrink 52
▁silly 52
▁thumb 52
▁tut 52
▁wander 52
10 51
lapp 51
oma 51
quarters 51
quo 51
▁August 51
▁Bio 51
▁Bla 51
▁Council 51
▁Feynman 51
▁Friday 51
▁LG 51
▁Sky 51
▁administration 51
▁broadcast 51
▁category 51
▁chamber 51
▁compelling 51
▁contradict 51
▁devote 51
▁disconnect 51
▁endangered 51
▁experiencing 51
▁immer 51
▁privacy 51
▁recruit 51
▁sponsor 51
▁trauma 51
▁uncomfortable 51
▁valley 51
keeper 50
ombin 50
pack 50
person 50
▁2002 50
▁2050 50
▁Albert 50
▁College 50
▁Daniel 50
▁Hong 50
▁Jones 50
▁Shanghai 50
▁System 50
▁Tasmania 50
▁Trans 50
▁aggressiv 50
▁beneath 50
▁censor 50
▁champion 50
▁compress 50
▁coordinate 50
▁ecology 50
▁flourish 50
▁gallon 50
▁geometry 50
▁glacier 50
▁glamour 50
▁hybrid 50
▁insulin 50
▁miserable 50
▁offen 50
▁ownership 50
▁pizza 50
▁potato 50
▁protocell 50
▁sculpt 50
▁simultaneously 50
▁terribly 50
▁unhappy 50
▁uniform 50
▁viral 50
▁wheat 50
aeda 49
ben 49
▁Court 49
▁Kevin 49
▁Mike 49
▁Yo 49
▁arguing 49
▁brush 49
▁crush 49
▁delay 49
▁descend 49
▁dictionary 49
▁earliest 49
▁evaluat 49
▁frustrated 49
▁glimpse 49
▁gorgeous 49
▁innocent 49
▁legitim 49
▁located 49
▁negotiate 49
▁orient 49
▁pencil 49
▁precious 49
▁reliable 49
▁squeez 49
found 48
gie 48
tip 48
▁55 48
▁April 48
▁Benjamin 48
▁Brot 48
▁Gandhi 48
▁Indus 48
▁Medica 48
▁Nelson 48
▁Ok 48
▁Para 48
▁Photo 48
▁Pop 48
▁Spanish 48
▁Swiss 48
▁commission 48
▁confirm 48
▁continuing 48
▁crawl 48
▁cylinder 48
▁despair 48
▁excess 48
▁grandparents 48
▁harness 48
▁interrupt 48
▁intimate 48
▁lobby 48
▁magnificent 48
▁multiply 48
▁pigeon 48
▁reproduce 48
▁silver 48
▁structural 48
▁surgical 48
▁unprecedented 48
ata 47
eanwhile 47
efficient 47
integration 47
reservat 47
▁350 47
▁700 47
▁800 47
▁Baby 47
▁Clinton 47
▁Coast 47
▁Hawaii 47
▁Mandela 47
▁Suddenly 47
▁antibiotics 47
▁capabilities 47
▁categories 47
▁chronic 47
▁cruel 47
▁eradicate 47
▁gradually 47
▁grateful 47
▁jihad 47
▁participation 47
▁receptor 47
▁straightforward 47
▁synthesize 47
▁troops 47
▁valid 47
▁virtue 47
+ 46
known 46
skeletal 46
world 46
▁Anybody 46
▁Building 46
▁Media 46
▁SETI 46
▁Virginia 46
▁accumulate 46
▁alle 46
▁bioluminescen 46
▁blend 46
▁brutal 46
▁chase 46
▁dar 46
▁encouraging 46
▁enterprise 46
▁exhibit 46
▁extraordinar 46
▁historic 46
▁intrinsic 46
▁mechanics 46
▁minimum 46
▁mutual 46
▁negotiation 46
▁remix 46
▁supplies 46
▁suppress 46
▁terrain 46
▁terrifying 46
Tech 45
lapse 45
mann 45
normal 45
tum 45
▁Cambodia 45
▁Dia 45
▁Indonesia 45
▁Joshua 45
▁Juli 45
▁PC 45
▁Rand 45
▁advertise 45
▁advise 45
▁anxiety 45
▁calories 45
▁civic 45
▁enemies 45
▁exposure 45
▁fallen 45
▁genuine 45
▁increment 45
▁investigation 45
▁magnitude 45
▁possess 45
▁prescription 45
▁stomach 45
▁storytelling 45
▁yourselves 45
AIDS 44
To 44
deck 44
holder 44
microbial 44
sufficient 44
zer 44
▁33 44
▁Except 44
▁Geographic 44
▁Joseph 44
▁Larry 44
▁Palestinian 44
▁Roman 44
▁Security 44
▁Shakespeare 44
▁Square 44
▁Stra 44
▁browse 44
▁cigarette 44
▁collision 44
▁colonies 44
▁composition 44
▁contaminat 44
▁controversial 44
▁corrupt 44
▁devastating 44
▁diameter 44
▁entertain 44
▁extrem 44
▁frightening 44
▁harbor 44
▁horror 44
▁impressive 44
▁intensiv 44
▁intriguing 44
▁membrane 44
▁minus 44
▁philosophical 44
▁preparing 44
▁rubber 44
▁smiling 44
▁stimulate 44
▁stunning 44
▁summarize 44
▁temple 44
▁translator 44
Z 43
labor 43
ncyclopedia 43
neu 43
▁2011 43
▁Bosnia 43
▁Brit 43
▁Carolina 43
▁DVD 43
▁Kon 43
▁Mexican 43
▁Mont 43
▁Mountain 43
▁Silicon 43
▁Uni 43
▁Vo 43
▁Wright 43
▁amazed 43
▁artifact 43
▁astronomer 43
▁choosing 43
▁chunk 43
▁correlation 43
▁deception 43
▁determin 43
▁drunk 43
▁electromagnet 43
▁empire 43
▁excitement 43
▁impulse 43
▁philanthropy 43
▁pleasant 43
▁puppet 43
▁recycling 43
▁rethink 43
▁retreat 43
▁satisfy 43
▁strategic 43
▁substantial 43
computer 42
discriminat 42
ford 42
marke 42
rump 42
school 42
vascular 42
▁29 42
▁Hunt 42
▁Leonardo 42
▁Louis 42
▁Mach 42
▁Mai 42
▁Mich 42
▁Music 42
▁Stewart 42
▁Technology 42
▁Ur 42
▁Work 42
▁anonymous 42
▁awkward 42
▁chemist 42
▁convenient 42
▁cultivat 42
▁emphasize 42
▁enzyme 42
▁excellent 42
▁likelihood 42
▁luxury 42
▁persuade 42
▁scaffold 42
▁storyteller 42
▁welfare 42
Man 41
carbon 41
maximum 41
rock 41
sten 41
▁Beijing 41
▁Die 41
▁Fellow 41
▁Monterey 41
▁Mumbai 41
▁Professor 41
▁Tor 41
▁Wind 41
▁alphabet 41
▁embryo 41
▁horizontal 41
▁irrational 41
Li 40
child 40
culture 40
material 40
▁2020 40
▁Arthur 40
▁Buddha 40
▁Craig 40
▁Everest 40
▁Laden 40
▁Nathan 40
▁Nick 40
▁Norden 40
▁November 40
▁Parkinson 40
▁Saudi 40
▁fest 40
▁gross 40
▁legen 40
▁spiral 40
band 39
▁Berlin 39
▁Down 39
▁McDonald 39
▁Stil 39
▁UN 39
▁USA 39
▁linguist 39
▁trivial 39
zu 38
▁Earl 38
▁Phil 38
▁Sand 38
▁Tro 38
▁Typ 38
▁faul 38
Lead 37
ei 37
virus 37
▁1999 37
▁County 37
▁Disney 37
▁Liste 37
▁Nu 37
▁Sarah 37
▁Sylvia 37
▁Tibet 37
▁Wilson 37
Prince 36
abyte 36
▁1998 36
▁Alexander 36
▁Business 36
▁Dick 36
▁Education 36
▁IBM 36
▁Industrial 36
▁Job 36
▁Jonathan 36
▁Lewis 36
▁Palm 36
▁Plan 36
▁Show 36
▁Sierra 36
▁Society 36
▁ambition 36
▁minimal 36
▁multinational 36
▁stigma 36
▁ultraviolet 36
Ge 35
agen 35
cken 35
etter 35
generator 35
kilometer 35
therapie 35
▁Band 35
▁Brooklyn 35
▁Charlie 35
▁FDA 35
▁Gen 35
▁Jupiter 35
▁Mond 35
▁Pass 35
▁Rosling 35
▁Start 35
▁Susan 35
▁sei 35
La 34
Telescope 34
arten 34
sistent 34
stein 34
wand 34
▁1994 34
▁Buddhist 34
▁Columbia 34
▁Glas 34
▁Jill 34
▁Jordan 34
▁Library 34
▁Medicine 34
▁Mini 34
▁Mit 34
▁Mode 34
▁unfair 34
Ja 33
eh 33
generation 33
institut 33
moral 33
sch 33
▁Alaska 33
▁Anderson 33
▁Atlanta 33
▁Beach 33
▁Francis 33
▁Fried 33
▁Fund 33
▁Hospital 33
▁Jerusalem 33
▁Physi 33
▁Seattle 33
▁Student 33
▁Thailand 33
▁Victoria 33
▁introvert 33
▁jung 33
▁stabil 33
▁steril 33
parameter 32
stadium 32
▁Apollo 32
▁Bruce 32
▁Empire 32
▁Evan 32
▁Full 32
▁Government 32
▁Namibia 32
▁Office 32
▁PowerPoint 32
▁Rachel 32
▁Sin 32
▁Ski 32
▁TEDGlobal 32
▁Tokyo 32
▁Venezuela 32
▁Watson 32
▁mild 32
▁um 32
patient 31
positiv 31
stab 31
▁Computer 31
▁Denn 31
▁Galapagos 31
▁Head 31
▁Himalaya 31
▁Jefferson 31
▁Johnny 31
▁Kelly 31
▁Liberia 31
▁Montana 31
▁Natasha 31
▁Phoenix 31
▁Sebastian 31
▁Sudan 31
▁Tele 31
▁Teszler 31
▁eng 31
= 30
Cola 30
Fi 30
Star 30
enthusiast 30
▁- 30
▁1995 30
▁Babbage 30
▁Berkeley 30
▁Bett 30
▁Canyon 30
▁Del 30
▁Farm 30
▁Keith 30
▁Kennedy 30
▁Kosovo 30
▁Post 30
▁Radio 30
▁Senat 30
▁Ushahidi 30
▁Whit 30
▁Wir 30
▁absurd 30
▁iPad 30
▁relativ 30
▁1997 29
▁Hyper 29
▁Journal 29
▁Mount 29
▁Point 29
▁Royal 29
▁Solar 29
▁Tesla 29
▁Wolfram 29
▁eBay 29
▁potent 29
Pa 28
Pro 28
ige 28
ippe 28
ologie 28
sourcing 28
á 28
▁Fal 28
▁Goliath 28
▁Gordon 28
▁Juan 28
▁Michigan 28
▁Sag 28
▁Sputnik 28
▁Sub 28
▁Virgin 28
▁unbe 28
amme 27
held 27
wick 27
▁Alpha 27
▁Bangalore 27
▁Cooper 27
▁Dylan 27
▁Edinburgh 27
▁Hindu 27
▁Norman 27
▁OECD 27
▁Patient 27
▁Zimbabwe 27
▁Zipcar 27
▁physiologi 27
Hi 26
Spider 26
apparat 26
kel 26
kon 26
▁1945 26
▁BMW 26
▁Beethoven 26
▁Fall 26
▁Hand 26
▁Hawking 26
▁Invest 26
▁Mama 26
▁Mozart 26
▁Pittsburgh 26
▁Princeton 26
▁RNA 26
▁SMS 26
▁Sweeney 26
▁Tat 26
▁Top 26
▁Toronto 26
▁bis 26
Robo 25
hung 25
retroviral 25
▁Armstrong 25
▁Carnegie 25
▁Darfur 25
▁Emily 25
▁Extrem 25
▁Freud 25
▁Information 25
▁Interview 25
▁Jersey 25
▁Kansas 25
▁Kri 25
▁Nairobi 25
▁Pennsylvania 25
▁Person 25
▁Starbucks 25
▁TEDMED 25
▁bitte 25
▁erectus 25
▁mir 25
ahr 24
post 24
rolle 24
text 24
▁1989 24
▁1991 24
▁AIMS 24
▁Bhutan 24
▁Cameron 24
▁Digital 24
▁Kibera 24
▁Kiribati 24
▁Margaret 24
▁Modern 24
▁Oliver 24
▁Portugal 24
▁Sydney 24
▁Tod 24
trick 23
zip 23
▁1996 23
▁Agnes 23
▁Amsterdam 23
▁Auto 23
▁Cassini 23
▁DARPA 23
▁Designer 23
▁Detroit 23
▁Kyoto 23
▁Labor 23
▁Lakota 23
▁Land 23
▁Linux 23
▁Massachusetts 23
▁Mir 23
▁Murray 23
▁Nepal 23
▁Neu 23
▁Philadelphia 23
▁Taiwan 23
▁Tamiflu 23
▁Wide 23
▁sie 23
ellen 22
▁1968 22
▁1975 22
▁1984 22
▁1993 22
▁Arizona 22
▁CNN 22
▁Company 22
▁Enceladus 22
▁End 22
▁Fast 22
▁Film 22
▁Flickr 22
▁Galileo 22
▁Klein 22
▁Motor 22
▁Movember 22
▁Neuro 22
▁Nicole 22
▁Normal 22
▁Pepsi 22
▁Stock 22
▁Such 22
▁Text 22
▁Wild 22
frau 21
itz 21
lage 21
plex 21
▁1986 21
▁CAPTCHA 21
▁Club 21
▁Ent 21
▁Europa 21
▁Fibonacci 21
▁Geh 21
▁Katrina 21
▁Kepler 21
▁Laptop 21
▁Ob 21
▁Online 21
▁Orleans 21
▁Tempest 21
▁Video 21
heim 20
riff 20
▁Depression 20
▁Studio 20
▁Wolf 20
▁das 20
Na 19
enz 19
lang 19
will 19
▁Ball 19
▁Dann 19
▁Hai 19
▁Hund 19
▁Nano 19
▁Um 19
▁lag 19
bank 18
weil 18
í 18
▁Cent 18
▁Der 18
▁Eis 18
▁Essen 18
▁Sex 18
▁dran 18
▁von 18
) 17
rotten 17
sam 17
▁Code 17
▁Evolution 17
▁Mut 17
▁Str 17
▁Tour 17
▁Tradition 17
▁Tumor 17
▁Zu 17
▁bald 17
▁nun 17
% 16
Du 16
bei 16
energie 16
feld 16
fried 16
heit 16
rung 16
trag 16
▁Euro 16
▁Form 16
▁Kind 16
▁Kl 16
▁Kra 16
▁Kurz 16
▁Million 16
▁Mission 16
▁Patent 16
▁Pilot 16
▁Planet 16
▁Schwarz 16
ende 15
strom 15
weg 15
▁Fahr 15
▁Generation 15
▁Genom 15
▁Psycholog 15
▁Rat 15
▁Rot 15
▁Schw 15
▁Sie 15
▁Von 15
▁dumm 15
▁nie 15
// 14
chen 14
firma 14
haft 14
ika 14
liste 14
unter 14
▁Alle 14
▁Babies 14
▁Bei 14
▁Festival 14
▁Finger 14
▁Grad 14
▁Gut 14
▁Innovation 14
▁mach 14
▁privat 14
▁vor 14
▁wie 14
_ 13
bau 13
cht 13
meister 13
raum 13
zen 13
▁Bis 13
▁Block 13
▁Blog 13
▁Chef 13
▁Chr 13
▁Diplomat 13
▁Histori 13
▁Ist 13
▁Mann 13
▁Rabbi 13
▁Rad 13
▁Ruf 13
▁Stand 13
▁Test 13
▁definitiv 13
# 12
@ 12
ische 12
liche 12
population 12
zel 12
è 12
▁Chip 12
▁Hotel 12
▁Journalist 12
▁Lei 12
▁Manche 12
▁Name 12
▁Stein 12
▁Theater 12
▁aus 12
▁messen 12
". 11
Patient 11
wie 11
ó 11
ö 11
▁Anthrop 11
▁Astronom 11
▁Boot 11
▁Bord 11
▁Celsius 11
▁Initiative 11
▁Link 11
▁Management 11
▁Moral 11
▁Multi 11
▁Philosoph 11
▁Standard 11
▁Studie 11
▁Vagina 11
▁Watt 11
▁km 11
▁nett 11
▁stark 11
▁stimuli 11
analyse 10
auf 10
lich 10
philosoph 10
sche 10
▁Experiment 10
▁Gang 10
▁Gas 10
▁Gib 10
▁Operation 10
▁Rest 10
▁Terror 10
▁Vision 10
▁Winter 10
▁bitten 10
▁ko 10
▁– 10
fang 9
kal 9
park 9
zig 9
▁1000 9
▁Anti 9
▁Asteroid 9
▁Atom 9
▁Deutsch 9
▁Kap 9
▁Nur 9
▁Partner 9
▁Puppe 9
▁Religion 9
▁Summe 9
▁Tier 9
▁Ton 9
▁Volk 9
▁Wer 9
▁ging 9
( 8
Q& 8
filter 8
gab 8
graphie 8
▁Front 8
▁Glamour 8
▁Programm 8
▁Reich 8
▁Software 8
▁Tag 8
▁Technologie 8
▁Veteran 8
▁aller 8
▁egal 8
▁sage 8
^ 7
essen 7
litz 7
ppel 7
system 7
turm 7
uer 7
▁Buch 7
▁Cyber 7
▁Das 7
▁Kenn 7
▁Malaria 7
▁Population 7
▁Schul 7
▁Senior 7
▁Sport 7
▁Transport 7
▁Zucker 7
▁diese 7
▁vom 7
", 6
Was 6
lichen 6
schen 6
schi 6
tete 6
tik 6
uell 6
ä 6
▁Bau 6
▁Chaos 6
▁Comic 6
▁Detail 6
▁Dollar 6
▁Fisch 6
▁Gott 6
▁Ideal 6
▁Jazz 6
▁Literatur 6
▁Marketing 6
▁Material 6
▁Mess 6
▁Minute 6
▁Nacht 6
▁Ort 6
▁Polio 6
▁Portrait 6
▁Spiel 6
▁Termin 6
▁Training 6
▁Wald 6
▁circa 6
▁enorm 6
▁nach 6
Design 5
Er 5
Sti 5
Wir 5
alter 5
auto 5
buch 5
handel 5
isch 5
kla 5
kt 5
platte 5
sinn 5
ungen 5
wagen 5
weise 5
zeit 5
zent 5
ã 5
▁Aber 5
▁Animation 5
▁Berg 5
▁Dopamin 5
▁Ehrlich 5
▁Figur 5
▁Gramm 5
▁Hallo 5
▁Haus 5
▁Industrie 5
▁Kraft 5
▁Kunst 5
▁Liebe 5
▁Nord 5
▁Original 5
▁Reservat 5
▁Team 5
▁Wort 5
▁Zum 5
▁eure 5
▁lang 5
▁quasi 5
▁wann 5
.000 4
Sch 4
bald 4
bung 4
essel 4
film 4
gabe 4
gung 4
kap 4
masse 4
ologe 4
pf 4
recht 4
stadt 4
trieb 4
ê 4
– 4
▁Baum 4
▁Beginn 4
▁Chance 4
▁Element 4
▁Ernst 4
▁Fische 4
▁Fleisch 4
▁Fossil 4
▁Frei 4
▁Fundament 4
▁Gift 4
▁Golf 4
▁Herr 4
▁Hunger 4
▁Insel 4
▁Instrument 4
▁Knopf 4
▁Kohle 4
▁Licht 4
▁Masse 4
▁Meeting 4
▁Moment 4
▁Phase 4
▁Pollen 4
▁Problem 4
▁Rede 4
▁Serie 4
▁Zeit 4
▁dein 4
▁dich 4
▁dick 4
▁halte 4
▁mache 4
▁muss 4
▁tat 4
!] 3
* 3
Sandwich 3
bombe 3
fallen 3
halten 3
kam 3
nden 3
oren 3
signal 3
stelle 3
uadrat 3
video 3
zog 3
â 3
ç 3
ñ 3
ü 3
▁Afrika 3
▁Alternative 3
▁Automobil 3
▁Budget 3
▁Cartoon 3
▁Cousin 3
▁Cricket 3
▁Diabetes 3
▁Dialog 3
▁Galaxie 3
▁Gegen 3
▁Herz 3
▁Hier 3
▁Humor 3
▁Juni 3
▁Lern 3
▁Magnet 3
▁Ober 3
▁Orte 3
▁Phosphor 3
▁Pizza 3
▁Privat 3
▁Regen 3
▁Richter 3
▁Rolle 3
▁Spiegel 3
▁Status 3
▁Talent 3
▁Trend 3
▁aber 3
▁ange 3
▁fern 3
▁flog 3
▁habe 3
▁hast 3
▁ich 3
▁ist 3
▁klug 3
▁unten 3
▁voll 3
!!! 2
Problem 2
QQ 2
Syndrom 2
System 2
[@ 2
gestalt 2
kor 2
lager 2
melde 2
mmel 2
nisse 2
passen 2
prüf 2
rei 2
spiel 2
student 2
studie 2
tanz 2
temperatur 2
weit 2
welt 2
zelle 2
£ 2
É 2
à 2
ø 2
ā 2
อร่อย 2
▁Baseball 2
▁Blick 2
▁Brief 2
▁Diagnose 2
▁Explosion 2
▁Familie 2
▁Feld 2
▁Fest 2
▁Frau 2
▁Fusion 2
▁Garten 2
▁Geld 2
▁Gravitation 2
▁Inspiration 2
▁Koch 2
▁Kurs 2
▁Lauf 2
▁Level 2
▁Manager 2
▁Meer 2
▁Mehr 2
▁Mein 2
▁Metall 2
▁Methan 2
▁Nun 2
▁Option 2
▁Oxytocin 2
▁Phantom 2
▁Position 2
▁Potential 2
▁Profil 2
▁Profit 2
▁Protein 2
▁Region 2
▁Schule 2
▁Seine 2
▁Strom 2
▁Trick 2
▁Variation 2
▁Virus 2
▁Weg 2
▁Wert 2
▁frei 2
▁für 2
▁genial 2
▁genug 2
▁hab 2
▁hinter 2
▁nein 2
▁spontan 2
▁wird 2
/& 1
Chromosom 1
Computer 1
Das 1
Die 1
Dollar 1
Ein 1
Ich 1
Institut 1
Mail 1
Origami 1
Source 1
Stell 1
XX 1
XXX 1
[# 1
\ 1
]! 1
][ 1
akt 1
artig 1
chten 1
ckt 1
druck 1
falte 1
fisch 1
geb 1
igkeit 1
insel 1
keit 1
krieg 1
kur 1
laden 1
politik 1
problem 1
raten 1
schluss 1
technologie 1
tiere 1
tzen 1
usch 1
viel 1
Ç 1
â 1
äum 1
ë 1
ï 1
ô 1
ú 1
üsse 1
ĂŤ 1
ć 1
ē 1
€ 1
√± 1
▁000 1
▁Abend 1
▁Amateur 1
▁Applaus 1
▁Auge 1
▁Balance 1
▁Bilder 1
▁Bombe 1
▁Brust 1
▁Dach 1
▁Definition 1
▁Diese 1
▁Ding 1
▁Doch 1
▁Ebene 1
▁Eigentum 1
▁Ein 1
▁Ende 1
▁Expedition 1
▁Farbe 1
▁Feuer 1
▁Formen 1
▁Ganz 1
▁Geb 1
▁Gedanken 1
▁Geist 1
▁Geruch 1
▁Gestalt 1
▁Haut 1
▁Himmel 1
▁Holz 1
▁Horizont 1
▁Idee 1
▁Impuls 1
▁Interpretation 1
▁Intuition 1
▁Kampf 1
▁Kapital 1
▁Katze 1
▁Kern 1
▁Kinder 1
▁Kongo 1
▁Lass 1
▁Luft 1
▁Maus 1
▁Melodie 1
▁Milch 1
▁Morgen 1
▁Mund 1
▁Mutter 1
▁Osten 1
▁Pharma 1
▁Probe 1
▁Regel 1
▁Restaurant 1
▁Ritual 1
▁Röntgen 1
▁Schachtel 1
▁Schau 1
▁Schl 1
▁Schnell 1
▁Situation 1
▁Spur 1
▁Symbol 1
▁Tasche 1
▁Teenager 1
▁Temperatur 1
▁Tempo 1
▁Theorie 1
▁Transistor 1
▁Traum 1
▁Verfahren 1
▁Version 1
▁Wagen 1
▁Wand 1
▁Wann 1
▁Website 1
▁Wie 1
▁Wirkung 1
▁Wurzel 1
▁absolut 1
▁allgemein 1
▁auf 1
▁dank 1
▁denn 1
▁durch 1
▁erzielen 1
▁fand 1
▁gab 1
▁geschützt 1
▁grosse 1
▁guten 1
▁kenne 1
▁möglich 1
▁nah 1
▁neue 1
▁recht 1
▁seine 1
▁starb 1
▁welche 1
▁zu 1
▁über 1
送你葱 1
madeupword0000 0
madeupword0001 0
