, 249509
. 180621
▁die 78013
en 68688
▁und 66898
s 66323
▁der 50483
n 49486
▁ist 46276
e 43928
▁in 42186
▁zu 40735
▁das 40689
▁ich 35013
▁wir 34294
▁es 32211
▁ 31933
t 30433
▁ein 28837
▁Sie 27979
▁sie 27288
▁von 25362
▁dass 24457
▁Und 24452
▁nicht 24057
▁eine 23659
er 21923
▁den 20795
▁mit 20550
▁auf 20147
▁an 17069
- 16823
▁wie 16446
▁sich 16371
▁Ich 16066
▁sind 15670
: 15409
r 15351
▁für 15118
▁haben 15084
▁" 13615
▁man 13277
▁um 13120
? 12913
▁war 12787
▁so 12433
▁als 12177
m 12167
▁Das 12133
▁er 12087
▁was 11501
▁Es 11467
▁aus 11400
▁diese 11179
▁dem 10896
▁im 10788
▁über 10446
▁wenn 10268
▁Wir 10207
▁einen 10036
▁uns 9962
d 9817
▁können 9316
▁werden 9060
▁hat 8627
▁oder 8562
▁des 8555
▁– 8070
▁aber 7927
▁kann 7916
▁einer 7823
▁auch 7701
▁Aber 7663
▁einem 7634
▁hier 7510
▁Die 7400
▁be 7393
▁sehr 7318
▁wird 7236
▁nur 6919
▁Menschen 6917
st 6893
te 6857
▁gibt 6609
▁dann 6543
▁mich 6534
▁vor 6486
▁also 6423
es 6286
▁ver 6220
▁sein 6161
▁nach 6122
ung 6000
▁-- 5875
▁etwas 5846
ä 5811
▁sehen 5804
ten 5793
▁Er 5785
l 5759
▁habe 5699
k 5682
▁noch 5663
▁dieser 5525
▁Welt 5507
ü 5413
re 5344
." 5301
▁mir 5268
▁bei 5214
▁ihre 5159
g 5103
▁ge 5065
▁mehr 5042
▁durch 4902
▁Wenn 4810
in 4773
▁alle 4706
f 4679
h 4549
▁wirklich 4476
▁Ihnen 4455
y 4422
b 4417
▁wurde 4394
▁machen 4383
ö 4331
▁In 4276
▁zum 4246
" 4129
▁Zeit 4103
z 4097
▁immer 4005
▁meine 3959
▁- 3950
▁Also 3950
▁tun 3923
▁weil 3871
▁viel 3794
▁dieses 3712
▁hatte 3684
▁wo 3660
▁keine 3623
▁unsere 3578
▁am 3555
▁zwei 3536
▁einfach 3508
ieren 3503
▁da 3498
▁Leute 3483
▁diesem 3482
▁Ein 3447
ig 3400
▁Dinge 3381
▁Leben 3341
▁sagte 3337
▁Was 3330
▁wissen 3310
al 3305
▁sagen 3282
ll 3279
ste 3267
be 3264
den 3239
▁diesen 3239
▁viele 3232
▁Art 3188
▁Be 3188
▁müssen 3159
▁waren 3156
▁bin 3135
le 3124
▁andere 3100
▁Jahren 3091
sch 3067
▁S 3061
▁eines 3057
▁jetzt 3033
▁Diese 3030
de 2982
▁anderen 2943
▁würde 2932
i 2917
▁ab 2903
▁ihr 2863
▁seine 2851
▁E 2846
▁Jahre 2843
▁alles 2833
▁zur 2831
an 2806
▁Ver 2804
▁Der 2781
ern 2774
▁selbst 2765
▁damit 2747
ge 2744
▁bis 2724
▁du 2718
lich 2696
iert 2688
w 2638
▁geht 2617
ische 2575
▁Wie 2572
▁muss 2570
u 2565
▁wieder 2553
▁So 2550
▁unter 2513
▁Man 2472
▁mein 2466
S 2465
ter 2448
▁zurück 2447
▁gut 2420
sten 2418
▁Kinder 2386
▁Sch 2373
▁schon 2373
ie 2372
▁denn 2372
▁möchte 2351
▁Nun 2349
▁An 2345
▁A 2325
▁K 2312
p 2294
ro 2292
' 2289
o 2288
zu 2264
ver 2258
▁weiter 2258
▁ihnen 2255
▁vielleicht 2250
ur 2249
▁einige 2225
it 2221
▁Geschichte 2210
▁drei 2204
▁B 2193
ch 2184
igen 2177
▁all 2168
▁davon 2166
▁zusammen 2135
▁Da 2115
ra 2107
▁heute 2107
A 2079
us 2075
il 2066
▁genau 2061
ne 2055
▁ganz 2039
ber 2037
▁Hier 2037
▁hatten 2036
li 2026
ri 2025
▁Re 2021
el 2019
▁werde 2002
▁ob 2000
chen 1997
ul 1988
▁dort 1987
▁tatsächlich 1987
▁könnte 1986
?" 1966
▁ihn 1960
▁nun 1948
▁darüber 1947
▁Jahr 1939
▁Problem 1938
▁Vor 1936
kt 1931
▁paar 1913
gen 1897
se 1887
ein 1886
▁wollen 1885
▁sch 1868
ut 1861
▁gab 1851
▁gehen 1843
▁meiner 1829
der 1827
me 1805
▁Beispiel 1802
▁Ge 1799
▁Ihre 1799
▁wurden 1799
▁weiß 1790
ungen 1786
lt 1781
ischen 1779
▁R 1776
▁Teil 1771
; 1766
Ü 1763
▁T 1755
▁neue 1749
▁Arbeit 1744
is 1732
▁un 1720
ar 1712
on 1708
▁Gehirn 1706
▁dazu 1705
▁denke 1691
▁unserer 1690
! 1688
▁Aus 1688
a 1674
▁gemacht 1674
ige 1671
▁hin 1666
▁vom 1666
▁kommen 1663
isch 1660
et 1658
▁sondern 1649
▁macht 1647
▁wäre 1644
▁denen 1639
▁will 1614
ren 1609
▁Dies 1605
▁heraus 1601
▁glaube 1600
▁denken 1598
▁finden 1590
▁gerade 1584
▁große 1580
▁kein 1568
▁Ab 1565
▁I 1565
▁einmal 1563
▁sogar 1563
▁Auf 1559
▁zwischen 1558
B 1556
ft 1553
▁Als 1553
▁Tag 1545
▁Prozent 1538
at 1534
▁leben 1533
▁geben 1529
▁zeigen 1527
▁Wasser 1521
▁ohne 1520
▁erste 1519
▁kommt 1516
▁Frage 1514
▁St 1514
▁Land 1513
▁Mal 1495
▁passiert 1491
▁jeder 1487
un 1483
▁dafür 1467
or 1456
▁unser 1454
ation 1453
▁während 1451
▁würden 1450
▁ganze 1449
▁k 1447
▁Geld 1437
▁mal 1436
ben 1435
▁nichts 1433
ach 1431
▁natürlich 1426
▁ja 1419
▁konnte 1415
▁sieht 1415
▁nie 1410
▁daran 1409
men 1408
▁Millionen 1407
▁lassen 1406
▁Eine 1404
K 1396
ist 1395
▁welche 1393
ze 1392
▁ersten 1385
▁Daten 1382
▁Im 1381
ik 1380
▁meisten 1380
▁warum 1377
▁verstehen 1376
ma 1375
ck 1372
▁Grund 1367
▁Idee 1366
pf 1364
▁besser 1361
ol 1359
im 1354
D 1352
▁sagt 1351
▁Bild 1349
▁Weg 1336
mal 1335
▁letzten 1327
M 1322
▁sollte 1320
heit 1319
▁G 1318
▁vier 1317
ing 1314
liche 1312
▁ziemlich 1310
dem 1308
ab 1305
▁20 1299
ha 1296
▁Lebens 1294
mp 1292
▁Frauen 1292
▁etwa 1286
än 1283
▁M 1282
▁ent 1277
▁wichtig 1277
▁könnten 1276
ed 1275
▁Ko 1275
▁Raum 1263
▁sollten 1259
her 1257
sp 1257
▁Z 1252
▁wollte 1252
▁bekommen 1249
ien 1242
x 1242
Q 1240
▁meinem 1238
Ä 1237
▁dabei 1235
▁meinen 1234
bar 1228
▁sprechen 1228
▁ging 1226
▁Ka 1225
zeit 1221
Ö 1220
▁He 1220
▁ihrer 1220
cht 1217
E 1211
em 1196
th 1196
▁bedeutet 1195
▁nehmen 1192
▁F 1190
▁C 1187
▁kleinen 1187
P 1184
▁arbeiten 1182
▁eigentlich 1180
▁kam 1180
▁Ende 1179
T 1178
▁Ha 1178
▁Dollar 1177
▁darauf 1171
▁Le 1170
▁Computer 1169
ken 1155
lei 1152
▁Technologie 1150
c 1149
▁sicher 1149
▁weniger 1144
äh 1137
▁Energie 1136
▁Sache 1136
▁Menge 1133
▁Körper 1131
ub 1124
ant 1123
▁10 1123
▁Ja 1120
ner 1118
▁Denn 1118
▁doch 1115
▁zeigt 1110
▁Fall 1108
är 1103
ster 1097
▁pro 1095
▁of 1093
". 1090
▁bringen 1090
lu 1089
▁Mit 1089
▁Un 1086
▁unseren 1083
iv 1081
F 1080
▁P 1080
▁Um 1079
▁La 1078
▁kleine 1076
▁gesehen 1074
▁brauchen 1072
▁ihm 1072
ve 1070
▁dachte 1064
ir 1059
lichen 1059
▁Seite 1058
▁Weise 1056
▁richtig 1054
▁Dann 1050
▁gute 1048
▁we 1048
C 1043
▁wenig 1040
.000 1030
zi 1029
▁großen 1029
ger 1028
▁entwickelt 1028
▁ganzen 1026
▁Zu 1023
to 1022
▁jemand 1021
▁schnell 1021
▁Dank 1019
▁Zukunft 1018
▁Du 1017
um 1013
▁Licht 1013
▁Mann 1007
", 1004
▁Mo 1004
ler 1002
▁jeden 1000
▁sei 1000
▁Kind 999
▁Person 996
stand 994
▁re 994
▁fünf 990
tra 987
▁Ma 986
▁Moment 983
▁Bei 982
▁funktioniert 982
ru 979
▁möglich 979
▁versuchen 977
▁Erde 976
▁a 974
▁Ihr 973
▁W 969
▁her 969
ich 968
▁keinen 965
la 963
gel 962
los 961
Ich 953
▁Frau 953
▁System 951
▁Hand 949
▁hätte 947
ür 943
G 942
ß 939
▁seit 938
op 937
uch 937
▁weit 937
▁seiner 936
am 935
ag 934
▁Sp 934
▁gesagt 933
we 931
▁hoch 931
kommen 927
rei 927
igkeit 926
▁eigenen 925
▁Ort 922
und 919
▁lernen 919
▁19 916
▁gegen 914
2 913
▁Musik 913
▁später 913
▁lang 911
▁De 910
▁Mutter 910
▁Pa 910
I 908
▁st 908
he 907
▁O 905
▁Natur 903
▁glauben 897
ta 895
▁schaffen 893
▁vielen 891
wa 890
cken 889
ko 886
▁wahr 886
▁wahrscheinlich 886
▁stellen 885
spiel 882
▁D 881
▁beim 880
ier 878
nde 877
aus 876
▁Buch 876
▁jedes 873
▁Probleme 870
form 869
mo 868
gt 866
au 863
▁Entwicklung 863
▁Stadt 861
▁Afrika 860
▁Kunst 860
▁Jetzt 859
ert 857
▁konnten 857
▁Form 854
▁lange 853
▁ungefähr 852
▁Warum 850
▁fast 849
end 848
di 846
▁Pro 842
▁Projekt 840
▁heißt 839
▁Internet 837
▁Wissen 835
▁Danke 834
▁erst 832
▁fest 829
▁neuen 829
fe 828
zen 826
schaft 823
▁Vielen 820
▁herum 820
▁50 818
▁genug 818
▁Ideen 816
▁erzählen 812
▁Auto 810
▁allen 810
land 809
▁nutzen 809
▁nächsten 808
▁weg 808
ke 807
▁helfen 807
gehen 806
▁30 804
▁Fa 801
▁je 801
▁unserem 801
▁schwer 798
os 797
▁begann 797
▁bisschen 797
ka 796
▁Bilder 795
▁Me 793
▁dich 793
L 789
▁sah 789
% 788
geben 787
▁kennen 787
bel 786
▁Bo 783
ion 781
▁seinen 781
fer 780
halten 780
▁Design 780
nehmen 778
▁Augen 777
▁Punkt 777
▁Nach 776
tor 774
▁anders 774
▁Li 773
▁We 773
▁Wo 773
auf 772
R 771
▁3 771
▁Di 771
▁bevor 769
id 768
gang 767
▁Planeten 767
▁gleich 766
▁Kon 765
as 763
▁Arten 763
▁TED 763
▁gehört 761
fen 759
▁Se 759
sche 756
▁braucht 756
schen 755
▁jede 753
▁Weil 752
ierte 751
▁L 751
ton 750
▁Leuten 748
▁Sprache 748
ität 745
▁Al 744
▁Ro 744
ende 743
▁Milliarden 743
man 742
▁verschiedene 742
pe 740
▁Mädchen 739
▁Wissenschaft 739
▁klar 738
ho 736
ismus 736
▁bauen 734
▁Na 732
▁la 729
▁Schule 728
▁e 728
▁ko 728
▁überall 728
ment 727
▁Selbst 725
▁f 725
▁Haus 724
▁Kopf 724
iger 723
recht 723
▁Nicht 723
V 722
▁letzte 722
O 720
▁nennen 720
▁menschliche 719
▁he 718
ff 717
▁stehen 716
▁gar 715
▁verändern 715
▁Spiel 714
no 713
▁Indien 713
▁Universum 712
▁eigene 712
▁darum 711
chte 710
▁ihrem 710
▁sagten 710
▁Schw 709
▁USA 708
▁anderes 708
▁liegt 707
5 706
▁reden 706
▁New 704
▁schön 704
▁aller 703
▁kurz 703
H 702
▁einzige 702
che 701
▁Gebäude 701
▁Ho 700
▁Gott 697
▁z 697
len 696
tro 696
▁Br 696
▁Ta 696
▁Video 696
▁euch 691
lo 690
the 690
▁Informationen 690
▁spielen 690
▁schwierig 689
▁Film 688
ierung 686
▁Sa 686
▁nächste 686
▁sechs 685
ium 684
lang 682
▁Antwort 681
▁unglaublich 681
▁versucht 681
▁Minuten 680
▁musste 678
N 677
▁Ziel 674
▁Geschichten 673
▁Stück 673
▁namens 673
nder 672
▁Für 671
▁bereits 666
8 665
▁U 665
▁oben 665
▁benutzen 663
▁machte 663
▁Lass 661
▁Wirtschaft 659
▁besonders 658
▁verändert 658
uer 657
▁Gefühl 657
▁soll 657
ot 656
▁erreichen 656
▁Krieg 655
▁Meine 655
▁halten 655
mit 654
▁100 654
▁Fragen 654
ett 653
na 653
▁steht 652
son 651
▁gerne 651
▁weitere 651
▁Glück 649
▁1 648
iß 647
legen 646
teil 645
bt 644
▁Co 644
▁Familie 644
▁Mein 643
▁N 643
▁erkennen 642
ug 640
W 637
▁Am 637
▁Regierung 637
▁hätten 636
cher 634
▁darin 634
▁hören 634
ive 633
▁Vater 632
v 630
▁15 629
eln 628
▁Gruppe 628
4 627
▁ange 627
▁Macht 626
▁Unternehmen 625
▁Verhalten 625
▁Ra 624
tisch 623
▁Gesellschaft 623
▁bewegen 623
7 621
▁Ent 621
▁hinter 621
▁recht 620
▁Kl 619
▁Oder 619
▁fragen 619
▁Krebs 617
fi 615
▁wer 615
0 614
▁jedem 614
isten 613
▁Luft 611
icht 610
▁Kultur 610
▁Lehrer 609
▁China 608
▁2 607
weg 606
art 605
ick 605
▁Möglichkeit 605
sa 604
ga 603
▁Herz 602
vi 601
▁entwickeln 601
▁Unter 599
▁interessant 599
▁neu 597
bild 596
hen 596
▁irgendwie 596
▁niemand 595
bau 594
▁bekannt 594
va 592
stoff 591
▁for 591
kan 590
▁deine 590
▁frei 590
▁führen 590
▁gesamte 590
▁schlecht 590
lichkeit 588
werk 588
▁4 588
▁ausge 588
▁solche 588
▁to 588
▁verschiedenen 588
ia 587
▁p 587
ph 586
so 586
▁Bewegung 586
▁Prozess 586
▁glücklich 586
▁Sachen 585
▁J 584
igung 583
▁vorstellen 583
▁Ba 581
▁Eltern 580
▁beiden 580
▁fragte 580
▁Stunden 579
▁Patienten 578
▁erhalten 578
per 575
▁einigen 575
1 572
6 572
hi 572
▁Hause 572
▁menschlichen 572
enden 570
log 569
▁Vielleicht 569
▁tief 569
▁Bereich 568
▁Kindern 568
▁verwenden 568
rie 567
▁groß 567
tz 566
reich 564
▁Forschung 564
mmer 563
▁manchmal 563
ang 562
sam 562
▁Vorstellung 562
▁alt 562
pro 561
▁bereit 561
▁versch 561
▁anzu 559
▁mag 559
▁wollten 559
ja 558
▁5 558
▁b 558
▁Roboter 557
▁sage 557
▁Do 556
ank 555
ine 555
▁beginnen 555
▁innerhalb 555
eh 554
setzen 554
▁besten 554
bei 553
] 551
pp 551
▁de 551
▁falsch 551
bi 550
einander 550
▁Gut 550
ly 549
sicht 549
sse 549
▁dir 549
3 548
▁York 548
▁direkt 548
[ 547
▁los 547
▁schauen 547
ran 546
▁Umwelt 546
ale 544
▁Bildung 544
▁Lage 544
▁nämlich 544
treten 543
dung 542
mi 541
▁Ne 541
▁Dr 540
▁Männer 540
▁unterschiedlich 540
U 538
▁stellt 538
▁führt 537
keit 536
tik 535
▁18 535
ah 534
▁Bau 534
▁Fl 534
arbeit 533
fin 533
▁tr 533
ling 532
▁Angst 532
▁Doch 531
▁Wort 531
▁wohl 531
▁überhaupt 531
if 530
▁wegen 530
fall 528
lung 528
▁Schritt 528
▁gemeinsam 528
▁leicht 528
▁ändern 527
ers 526
ide 526
ng 525
▁Bi 521
▁Essen 521
▁fand 520
▁getan 519
▁40 517
▁Recht 517
sta 514
▁Liebe 514
▁Länder 513
▁Vi 513
▁gleichen 513
▁zwar 513
▁Sinn 512
ba 511
▁... 511
ckt 510
▁treffen 510
vor 509
▁Technik 509
ahr 508
▁Bio 508
▁Stellen 508
go 507
▁Anfang 507
▁Vortrag 507
da 505
trag 505
▁Okay 505
▁vorher 505
▁weltweit 505
system 504
▁Mensch 504
pa 503
zahl 503
▁Po 502
▁Mittel 501
▁eher 501
▁Dingen 499
▁benutzt 499
▁Hilfe 498
▁lebt 498
▁Eis 497
▁Ni 496
bo 495
▁Wissenschaftler 495
ring 494
▁Versuch 493
▁dessen 493
wer 492
▁worden 492
hin 491
stellen 491
▁Gedanken 490
▁allem 490
all 489
▁Tages 489
▁Unterschied 489
▁bringt 489
age 488
ziehen 488
isiert 487
▁Arm 487
▁Sicherheit 487
kon 486
▁Rück 486
▁acht 486
▁Erfahrung 485
hl 484
▁Gemeinschaft 484
▁Grunde 484
▁lässt 484
mon 483
tion 483
▁El 483
▁Wochen 483
▁Zum 483
ischer 482
oren 482
▁Oh 482
▁Tiere 482
▁fühlen 482
▁gleiche 482
schw 480
ute 480
▁kon 480
änge 479
▁kleiner 478
▁Staaten 477
▁bekam 477
▁tut 477
▁zweite 477
▁Ozean 476
▁abge 476
9 475
nden 475
▁Gra 475
▁Richtung 475
▁Wahl 475
geb 474
punkt 474
stelle 472
▁Herausforderung 472
▁Markt 472
▁Publikum 472
gestellt 471
ker 471
▁Gesicht 471
▁Jahrhundert 471
▁Tage 471
elle 470
▁Information 470
▁kamen 470
▁Lösung 469
▁Team 469
▁brachte 469
00 467
ühl 467
▁Kraft 467
▁mussten 467
ud 466
▁meines 466
▁unten 466
▁Freunde 465
▁Gebiet 465
▁Haupt 465
▁Denken 464
▁Foto 464
▁Situation 463
▁hoffe 463
up 462
▁To 462
blick 461
lin 461
▁Ku 461
▁obwohl 461
bare 460
▁Erfolg 460
▁Möglichkeiten 460
▁Alter 459
▁jene 459
▁bitte 458
▁funktionieren 458
▁schreiben 458
▁soziale 458
wert 457
▁Arbeits 457
▁Thema 457
▁Wert 456
▁unbe 456
▁Stimme 455
Was 454
▁All 454
▁Zwei 454
▁damals 454
▁genannt 454
▁sieben 454
▁verwendet 454
fang 453
▁Hund 453
▁Nacht 453
▁Generation 451
▁sp 451
▁V 450
▁betrachten 450
▁teilen 450
▁Bu 449
ierten 448
voll 448
▁Boden 448
▁Reise 447
▁schw 447
▁sollen 447
ard 446
▁Meinung 446
▁Tat 446
▁Zellen 446
▁entfernt 446
▁erzählt 446
▁Tier 445
▁stark 445
tin 444
do 442
▁Ist 442
▁jedoch 442
▁zer 442
nis 441
▁einfache 441
▁größte 441
▁wusste 441
▁essen 440
▁völlig 440
zer 439
▁m 439
uß 438
▁Job 438
▁Muster 438
▁Nein 438
▁aufge 438
▁auszu 438
▁welches 438
▁Neu 437
▁Preis 437
▁Fr 436
▁H 436
▁Labor 436
▁Programm 436
▁Verbindung 436
▁Woche 436
▁lösen 435
hal 433
▁Gen 433
▁Monate 433
▁komplett 433
▁zuvor 433
druck 432
ziert 432
▁Lo 432
▁Autos 431
▁wären 431
▁Familien 430
▁beide 430
▁kaufen 430
▁offen 430
zent 429
▁Fähigkeit 429
ell 428
ruf 428
▁Baby 428
▁bleiben 428
▁junge 428
▁nimmt 428
ib 427
▁Amerika 427
▁arbeitet 427
▁besteht 427
▁genauso 427
kü 426
rin 426
satz 425
tel 425
▁Tatsache 425
▁lesen 425
▁langsam 424
ord 423
▁Ki 423
▁Modell 423
▁Wer 423
and 422
▁Namen 422
zeichnet 421
▁Reihe 420
▁Umgebung 420
ator 419
les 419
uell 419
▁Freund 419
▁erreicht 419
▁erschaffen 419
▁Gene 418
▁sterben 418
kal 417
▁Geist 417
▁gefunden 417
isieren 416
▁Alle 416
▁Sehen 415
▁hinein 415
▁Hi 414
▁anderer 414
ziel 413
▁entdeckt 413
▁gewisse 413
▁hervor 413
▁schrieb 413
▁verbunden 413
▁voll 413
▁Rolle 412
▁draußen 412
▁zehn 412
fach 411
gi 411
▁unseres 411
weise 410
▁Größe 410
▁bist 410
▁spielt 410
schau 409
▁bewusst 409
änder 408
▁Ihren 408
▁Wahrheit 408
▁scheint 408
▁12 407
▁dr 407
▁großartige 407
Ge 406
ind 406
▁öffentliche 406
licht 405
▁Oberfläche 405
▁beginnt 405
▁hast 405
▁Bevölkerung 404
▁Blut 404
▁liebe 404
des 403
▁erklären 403
▁gewesen 403
raum 402
▁Groß 402
▁Technologien 402
▁Ländern 401
▁reich 401
▁sprach 401
▁suchen 401
plan 400
▁Bücher 400
▁miteinander 400
setzt 399
▁Lei 399
▁Viele 399
▁gegenüber 399
▁schaut 399
Das 398
▁größten 398
▁raus 398
ete 396
fahren 396
je 396
rung 396
▁60 396
▁Unsere 395
▁War 395
▁gebaut 395
▁Künstler 394
▁geworden 394
▁passieren 394
kle 393
richten 393
▁Wind 393
▁bewegt 393
▁plötzlich 393
kor 392
sehen 392
▁aussehen 392
▁echte 392
▁gelernt 392
▁interessiert 392
▁nachdem 391
hm 390
▁Anzahl 390
▁Innovation 390
▁nahm 390
▁real 390
weisen 389
▁Mar 389
▁erinnern 389
▁jemals 389
▁Ze 388
▁anfangen 388
▁stand 388
greifen 387
wand 387
▁Ex 387
▁gezeigt 387
▁ähnlich 387
zig 386
▁Jeder 386
▁Krankheit 386
▁Sta 386
▁mache 386
▁schließlich 386
▁Material 385
▁Medien 385
▁kleines 385
▁rot 385
▁sehe 385
gleich 384
ic 384
▁Natürlich 384
▁möchten 384
wohn 383
ative 381
▁Mathematik 381
▁Zahl 381
bung 380
chten 380
genommen 380
haft 380
tag 380
▁bessere 380
▁daraus 380
▁länger 380
▁rein 380
fallen 379
lauf 379
prä 379
▁Bedeutung 379
▁Je 379
▁verloren 379
zieren 378
▁Tatsächlich 378
▁Meter 377
tausend 376
erweise 375
▁6 375
▁Hoffnung 375
▁hinaus 375
gesetzt 374
innen 374
ue 374
▁25 374
▁80 374
▁bekommt 373
▁deshalb 373
▁g 373
▁Einige 372
▁Mitte 372
▁Platz 372
▁Rest 372
ce 371
fähig 371
ob 371
▁Bar 371
▁Fi 371
▁Hu 371
griff 370
trieb 370
▁DNA 370
ak 369
est 369
stück 369
▁Heute 369
▁danach 369
bu 368
heim 368
▁Nahrung 368
▁Studenten 368
▁Teile 368
▁allein 368
▁fanden 368
▁riesige 368
bringen 367
rum 367
▁Tod 367
▁einzelne 367
▁guten 367
ht 366
▁Süd 366
▁aufzu 366
▁nahe 366
ite 365
que 365
vo 365
▁Alles 365
▁Produkt 365
▁absolut 365
▁nachdenken 365
▁stellte 365
Sch 364
istische 363
Die 362
fass 362
▁Experiment 362
▁Schul 362
▁perfekt 362
führ 360
zug 360
▁Aufgabe 360
▁Flugzeug 360
▁Linie 360
▁erfolgreich 360
ate 359
gebracht 359
tischen 359
▁gr 359
▁klein 359
▁niemals 359
▁tat 359
▁Ihrer 358
▁findet 358
ok 357
▁beste 357
geht 356
ologie 356
— 356
▁Meer 356
▁fliegen 356
las 355
leben 355
mut 355
▁Fehler 355
aff 354
▁Pi 354
▁Gesundheit 353
▁offensichtlich 353
del 351
mittel 351
▁Ding 351
▁laufen 351
schi 350
▁As 350
▁Hälfte 350
▁Ur 350
▁br 350
hand 349
io 349
om 349
sucht 349
▁Mitgefühl 349
fa 348
ssystem 348
▁Gesundheits 348
▁Kosten 348
▁Methode 348
▁sonst 348
ack 347
▁Berg 347
▁Fuß 347
▁Interesse 347
▁Straßen 347
▁einge 347
▁r 347
fassen 346
▁Konzept 346
▁Papier 346
▁Sonne 346
▁Universität 346
▁Vereinigte 346
▁Während 346
Wir 345
usch 345
▁Blick 345
▁Strom 345
▁Struktur 345
▁Wand 345
▁verrückt 345
Z 344
▁Test 344
▁einzu 344
▁komplexe 344
laden 343
▁Fisch 343
▁Veränderung 343
▁genommen 343
machen 342
ry 341
▁aktiv 341
▁interessante 341
▁zeige 341
rat 340
stellt 340
wie 340
▁Ga 340
▁fing 340
▁sofort 340
▁Evolution 339
▁digital 339
▁geboren 339
deck 338
raten 338
▁erklärt 338
▁erlaubt 338
▁jemanden 338
▁spricht 338
▁stimmt 338
zellen 337
▁7 337
▁Zeug 337
▁gesch 337
▁näher 337
▁Bewusstsein 336
▁höher 336
▁lieben 336
ika 335
▁90 335
▁Schüler 335
▁Theorie 335
▁fahren 335
▁setzt 335
teilen 334
▁Durch 334
lassen 333
▁Beziehung 333
▁Deshalb 333
▁Kamera 333
kel 332
xi 332
▁alten 332
▁gingen 332
▁neues 332
▁Medizin 331
▁Objekt 331
platz 330
▁Herr 330
▁daher 330
▁me 330
▁nein 330
▁wichtige 330
▁200 329
▁liegen 329
akt 328
▁8 328
▁mögen 328
▁statt 328
ap 327
kraft 327
ären 327
▁Gegen 327
▁OK 327
▁Städte 327
▁Zahlen 327
▁größer 327
richtung 326
▁Genau 326
▁Her 326
▁geschieht 326
▁ließ 326
tzen 325
▁geschrieben 325
▁herauszufinden 325
▁nennt 325
haus 324
▁Or 324
▁Revolution 324
enz 323
seite 323
über 323
▁egal 323
▁gern 323
ellen 322
▁Schauen 322
▁gegeben 322
▁Netz 321
▁Super 321
▁alte 321
▁hart 321
▁machten 321
▁traf 321
▁Fähigkeiten 320
▁Maschine 320
cker 319
ian 319
pt 319
▁Demokratie 319
▁Realität 319
▁glaubt 319
schrei 318
selben 318
stehen 318
uh 318
▁11 318
▁Religion 318
merk 317
▁Ergebnis 317
▁Nachrichten 317
▁Te 317
▁Wachstum 317
▁schlechte 317
▁schneller 317
▁wichtiger 317
In 316
▁Chance 316
▁ansehen 316
▁hundert 316
▁tragen 316
▁ziehen 316
oh 315
▁Ebene 315
▁HIV 315
▁Zusammen 315
par 314
▁Ar 314
▁Seiten 314
▁früher 314
▁gesprochen 314
▁hörte 314
▁setzen 314
▁Atom 313
▁Kontrolle 313
▁baut 313
▁danke 313
arm 312
fälle 312
tzt 312
▁Gewalt 312
▁Pe 312
▁Rat 312
▁Region 312
▁Straße 312
▁Aufmerksamkeit 311
▁Behandlung 311
▁Firma 311
▁ständig 311
▁älter 311
▁Google 310
▁Tra 310
▁Wieder 310
▁w 310
atur 309
wort 309
ät 309
üsse 309
od 308
▁Schulen 308
▁anstatt 308
▁außer 308
▁betrachtet 308
▁dachten 308
▁tolle 308
bald 307
ließ 307
▁Büro 307
▁zuerst 307
▁zweiten 307
one 306
▁Dorf 306
▁Worte 306
▁fantastisch 306
▁gew 306
▁neben 306
▁wachsen 306
laufen 305
sel 305
▁Einfluss 305
▁Gr 305
▁Para 305
▁Sinne 305
schnitt 304
▁Druck 304
rzte 303
▁16 303
▁richtige 303
schlagen 302
sh 302
▁Nord 302
▁bestimmt 302
J 301
zeug 301
▁Gerät 301
▁Tu 301
▁verbracht 301
ade 300
denken 300
▁Europa 300
▁Jahrzehnt 300
▁abzu 300
▁erstaunlich 300
▁finde 300
▁gleichzeitig 300
brechen 299
kla 299
sinn 299
ure 299
▁Fortschritt 299
▁Gruppen 299
▁Staat 299
▁folgende 299
▁gearbeitet 299
▁mehrere 299
▁passierte 299
schließen 298
ualität 298
▁Menschheit 298
▁Von 298
▁begannen 298
lan 297
mmel 297
▁Gemeinde 297
▁Monaten 297
▁Not 297
▁Sh 297
Re 296
ek 296
erung 296
nom 296
weit 296
▁Karte 296
▁Orte 296
▁Physik 296
▁Si 296
▁Studie 296
▁falls 296
▁normal 296
▁persönliche 296
▁vorbei 296
Be 295
bra 295
kur 295
lose 295
▁Gleich 295
▁Nur 295
▁kompliziert 295
Wie 294
artige 294
essen 294
geschlossen 294
sprechen 294
▁Pflanzen 294
▁anschauen 294
chan 293
körper 293
wachsen 293
▁Regeln 293
▁end 293
▁fertig 293
bahn 292
äre 292
▁Entscheidungen 292
▁Fo 292
▁Mark 292
▁Monat 292
▁No 292
▁großer 292
kam 291
stellung 291
▁Ergebnisse 291
▁Jo 291
▁Plan 291
▁Pu 291
▁Spaß 291
▁US 291
▁handelt 291
▁Gründe 290
▁Kern 290
▁Tür 289
▁bald 289
kommt 288
pen 288
port 288
▁Finger 288
▁na 288
▁sozialen 288
arten 287
gegeben 287
ort 287
▁Fe 287
▁Geschäft 287
▁Himmel 287
▁Mikro 287
▁Ok 287
▁beobachten 287
▁ermöglicht 287
▁fr 287
▁gesund 287
org 286
zugehen 286
▁Tagen 286
▁extrem 286
▁kannst 286
du 285
ock 285
▁Morgen 285
▁Sicht 285
▁bestimmten 285
▁kreativ 285
Ja 284
tritt 284
▁14 284
▁Politik 284
▁Typ 284
▁sahen 284
▁such 284
▁verlassen 284
welt 283
▁Beispiele 283
▁Eines 283
▁Netzwerk 283
▁arm 283
▁verbessern 283
▁versuchte 283
co 282
▁schafft 282
▁verlieren 282
agen 281
▁Organ 281
▁Studien 281
▁lag 281
▁möglichen 281
▁nachzudenken 281
▁wunderbare 281
wir 280
▁Mi 280
▁Sohn 280
▁bleibt 280
▁komme 280
ark 279
teilung 279
zeichnen 279
▁Geh 279
▁Zugang 279
▁großartig 279
▁sitzen 279
flu 278
hören 278
iff 278
rennen 278
▁Bühne 278
▁Haut 278
▁bestimmte 278
/ 277
top 277
uck 277
▁Armut 277
▁form 277
dy 276
ford 276
stein 276
▁Funktion 276
▁Gesetz 276
▁Industrie 276
▁links 276
▁wirtschaftliche 276
ca 275
führen 275
öl 275
▁Beweis 275
▁David 275
▁My 275
▁Reaktion 275
▁hab 275
▁medizinische 275
▁rund 275
kehr 274
rich 274
▁vergessen 274
issen 273
netz 273
wende 273
wirtschaft 273
▁erzeugen 273
▁irgendwo 273
▁morgen 273
▁unge 273
▁winzig 273
oo 272
» 272
▁Entscheidung 272
▁Meeres 272
▁Software 272
▁Wörter 272
▁hielt 272
▁produzieren 272
▁wider 272
durch 271
▁Geschäfts 271
▁Partner 271
▁Vergangenheit 271
▁voller 271
We 270
folge 270
grund 270
▁Beginn 270
▁Wesen 270
▁aussieht 270
▁seltsam 270
▁unmöglich 270
anne 269
ionen 269
net 269
▁Feld 269
▁Stelle 269
▁Sterne 269
▁dritte 269
▁hohe 269
▁irgendeine 269
buch 268
mann 268
äge 268
▁Nation 268
▁nenne 268
rate 267
▁70 267
▁Flug 267
▁Spezies 267
▁Wa 267
▁bilden 267
amp 266
azi 266
och 266
sitz 266
zustellen 266
▁Früh 266
▁Krankheiten 266
▁Mars 266
▁Min 266
▁Wirklichkeit 266
▁gebracht 266
▁gekommen 266
▁gewinnen 266
▁zumindest 266
isierung 265
schlag 265
▁Amerikaner 265
▁Spe 265
jährige 264
▁Lu 264
▁Medikamente 264
▁Prinzip 264
▁Wal 264
pel 263
▁9 263
▁Designer 263
▁Grenzen 263
▁Sex 263
▁schrecklich 263
gruppe 262
mie 262
▁folgen 262
▁versuche 262
ps 261
▁CO 261
▁Einzel 261
▁Hoch 261
▁Komm 261
▁Können 261
▁Orten 261
▁and 261
▁arbeitete 261
▁lernte 261
komm 260
lb 260
licher 260
▁Firmen 260
▁Landes 260
▁denkt 260
▁trotzdem 260
Oh 259
gezogen 259
▁Bakterien 259
▁Nachricht 259
▁Ob 259
▁Su 259
▁geschehen 259
▁schwarze 259
▁Auch 258
▁Formen 258
▁Kri 258
▁Schl 258
▁Telefon 258
▁entdecken 258
▁leid 258
▁runter 258
▁unglaubliche 258
▁wussten 258
füllt 257
▁führte 257
« 256
▁Bis 256
▁Kar 256
▁Klasse 256
▁befinden 256
▁früh 256
ow 255
rüber 255
▁Beste 255
▁National 255
▁Personen 255
▁bemerkt 255
▁heutzutage 255
▁neun 255
▁sowohl 255
▁verkauft 255
kte 254
legt 254
▁Wahrscheinlich 254
▁dreht 254
▁globalen 254
▁verbinden 254
▁17 253
▁Car 253
▁Maß 253
feld 252
ile 252
wasser 252
▁Freiheit 252
▁eben 252
▁existiert 252
▁jungen 252
schrift 251
zunehmen 251
▁Akt 251
▁Artikel 251
▁Bürger 251
▁Leidenschaft 251
▁Ressourcen 251
▁Sekunden 251
▁erfahren 251
▁grundlegende 251
▁Arzt 250
▁König 250
▁Lehr 250
▁Nummer 250
▁Präsident 250
▁Werkzeuge 250
▁gefährlich 250
lon 249
ologen 249
▁Aktivität 249
▁Klima 249
▁Per 249
▁Schmerz 249
▁rede 249
ierende 248
programm 248
wechsel 248
▁Ad 248
▁Kommunikation 248
▁Stein 248
▁Tisch 248
▁Ton 248
▁cool 248
▁einander 248
▁se 248
▁übrigens 248
bie 247
gef 247
▁Architektur 247
▁Bäume 247
▁Fotos 247
▁Uhr 247
▁Version 247
▁benötigt 247
▁politische 247
▁verb 247
▁verstanden 247
▁ändert 247
bot 246
frei 246
maschine 246
äum 246
▁Bezug 246
▁Krankenhaus 246
▁Mond 246
▁San 246
energie 245
pri 245
zieht 245
▁Ingenieur 245
▁Ordnung 245
▁Verständnis 245
▁aufgrund 245
▁herstellen 245
▁veröffentlicht 245
ei 244
tätig 244
▁Englisch 244
▁Leistung 244
▁Million 244
▁Text 244
▁gross 244
▁manche 244
▁müsste 244
▁normalerweise 244
nahmen 243
rauch 243
▁Che 243
▁Frieden 243
▁Konflikt 243
▁Spitze 243
▁Vergleich 243
▁einzelnen 243
▁solchen 243
▁Fahr 242
▁Projekte 242
▁Red 242
▁Tro 242
▁arbeite 242
▁globale 242
▁hilft 242
▁saß 242
last 241
war 241
▁entscheiden 241
▁entschieden 241
▁international 241
berg 240
fisch 240
führung 240
geschichte 240
karte 240
▁Glauben 240
▁John 240
▁Park 240
▁besondere 240
▁gefragt 240
dach 239
▁Hände 239
▁Risiko 239
▁entstand 239
▁gehe 239
▁größere 239
Nein 238
baren 238
wesen 238
▁Farbe 238
▁Feuer 238
▁Gefängnis 238
▁Genom 238
▁See 238
▁Web 238
▁dauert 238
▁messen 238
▁rechts 238
▁warten 238
han 237
heben 237
nk 237
tausch 237
▁Abend 237
▁Har 237
▁Nerven 237
▁Regel 237
▁echt 237
▁ehrlich 237
▁häufig 237
▁laut 237
die 236
ffer 236
gerät 236
modell 236
▁13 236
▁Daher 236
▁Mu 236
▁erinnert 236
▁geschaffen 236
▁starb 236
band 235
▁Finanz 235
▁Ganze 235
▁Herzen 235
▁Hä 235
▁befindet 235
▁beschloss 235
▁eng 235
▁gering 235
▁gestellt 235
▁taten 235
gal 234
kauf 234
wi 234
▁Erwachsene 234
▁Kampf 234
▁Signal 234
▁Traum 234
▁dar 234
▁fühlte 234
▁selben 234
▁untersuchen 234
wal 233
zogen 233
▁Organisation 233
▁Schönheit 233
▁Vorteil 233
▁Wi 233
▁dadurch 233
▁diejenigen 233
▁hält 233
▁leisten 233
▁verbreitet 233
tragen 232
ückt 232
▁Sam 232
▁Sand 232
▁Will 232
▁bestehen 232
▁bisher 232
▁halbe 232
grün 231
itter 231
ras 231
skraft 231
▁Lauf 231
▁ca 231
▁erzeugt 231
▁faszinierend 231
▁höchst 231
▁retten 231
▁schlimm 231
gab 230
hält 230
stände 230
tum 230
▁Auge 230
▁Bank 230
▁schöne 230
ille 229
lager 229
▁21 229
▁Botschaft 229
▁Hirn 229
▁Klimawandel 229
▁außerhalb 229
▁welcher 229
pol 228
▁Aspekt 228
▁Gas 228
▁Geb 228
▁best 228
▁läuft 228
▁nannte 228
▁nutzt 228
▁praktisch 228
▁wann 228
▁zeigte 228
gelegt 227
hung 227
schicht 227
wick 227
▁And 227
▁Entdeckung 227
▁Liste 227
▁Name 227
▁Punkte 227
▁Zeitpunkt 227
▁ernst 227
▁täglich 227
▁verursacht 227
▁zufällig 227
krieg 226
markt 226
tät 226
▁Geräusch 226
▁Grad 226
▁Handel 226
▁Inhalt 226
▁Trans 226
▁sammeln 226
▁wert 226
af 225
arbeiten 225
prozess 225
strahl 225
▁Auswirkungen 225
▁Ca 225
▁Gelegenheit 225
▁Jede 225
▁getroffen 225
▁herausfinden 225
bereit 224
rad 224
▁Gewinn 224
▁Gold 224
▁Kreis 224
▁Werk 224
durchschnittlich 223
▁Baum 223
▁Freude 223
▁Höhe 223
▁Kilometer 223
▁Mach 223
▁Neuro 223
▁amerikanischen 223
▁behaupte 223
▁ebenso 223
▁eure 223
▁lokale 223
ose 222
uelle 222
zubringen 222
▁Jungen 222
▁Schlüssel 222
▁Teilen 222
▁außergewöhnlich 222
▁dunkle 222
▁erzählte 222
▁herunter 222
▁keiner 222
▁niedrig 222
▁produziert 222
X 221
passen 221
▁Motor 221
▁Werte 221
▁verkaufen 221
leistung 220
problem 220
tiker 220
wärts 220
▁Biologie 220
▁Charakter 220
▁For 220
▁Junge 220
▁Kra 220
▁Wunder 220
▁einzigen 220
setzung 219
▁Führung 219
▁Kollegen 219
▁Lernen 219
▁Sin 219
▁aufregend 219
▁blaue 219
▁mächtig 219
▁unterstützen 219
barkeit 218
einhalb 218
mat 218
upp 218
▁Mag 218
▁dasselbe 218
▁erwarten 218
▁geschah 218
▁kaum 218
afrikanische 217
verhalten 217
▁Autor 217
▁Bill 217
▁Einer 217
▁Einkommen 217
▁Gang 217
▁Gespräch 217
▁Produkte 217
▁biologische 217
▁intelligent 217
▁land 217
▁moralische 217
▁schicken 217
Ma 216
leiten 216
sequenz 216
▁Ahnung 216
▁Lösungen 216
▁Regen 216
▁Schwester 216
▁Wege 216
▁inter 216
▁kostet 216
▁vollständig 216
bla 215
bruch 215
handel 215
qua 215
▁Glas 215
▁Pri 215
▁Worten 215
▁entweder 215
▁erinnere 215
▁überleben 215
▁überraschend 215
konom 214
reichen 214
teile 214
▁Noch 214
▁Operation 214
▁Stunde 214
▁Va 214
▁Westen 214
▁effektiv 214
▁elektrische 214
▁legt 214
▁positive 214
▁Osten 213
▁Plastik 213
▁Sc 213
▁Suche 213
▁behandeln 213
▁erwartet 213
gelöst 212
lage 212
▁Beine 212
▁Detail 212
▁Protein 212
▁Regierungen 212
▁Zustand 212
▁beschäftigt 212
▁ebenfalls 212
▁grüne 212
▁heutigen 212
bauen 211
ette 211
get 211
uadrat 211
▁Erkenntnis 211
▁Hy 211
▁Japan 211
▁Lied 211
▁Materialien 211
▁geb 211
▁steckt 211
▁weiss 211
hnlich 210
▁Anti 210
▁Beziehungen 210
▁Go 210
▁Handy 210
▁Jahrhunderts 210
▁Keine 210
▁Sommer 210
▁Systeme 210
▁hinzu 210
▁nahmen 210
gebiet 209
schein 209
schutz 209
staat 209
▁Farben 209
▁Geburt 209
▁Geschwindigkeit 209
▁Letzt 209
▁erfunden 209
▁fe 209
bereich 208
bin 208
lock 208
pass 208
▁Elektro 208
▁Fenster 208
▁Instrument 208
▁Phänomen 208
▁gedacht 208
▁link 208
alität 207
ari 207
rang 207
räume 207
▁Eigenschaften 207
▁Konferenz 207
▁Spiele 207
▁einfacher 207
▁fällt 207
▁konzentrieren 207
▁lautet 207
▁unabhängig 207
for 206
gewalt 206
ging 206
suche 206
til 206
▁Effekt 206
▁Pla 206
▁Verantwortung 206
▁Y 206
▁billig 206
▁selten 206
amme 205
industrie 205
schuldig 205
▁Anwendung 205
▁Fische 205
▁Kurz 205
▁Manchmal 205
▁Tri 205
▁Verb 205
▁lief 205
▁sodass 205
▁überzeugen 205
Ein 204
berleben 204
sländer 204
▁Den 204
▁Frei 204
▁Gu 204
▁angefangen 204
▁beeinflusst 204
▁dein 204
▁fangen 204
▁schützen 204
▁Fliege 203
▁Jedes 203
▁Vision 203
▁tausende 203
▁ursprünglich 203
fri 202
preis 202
▁Betracht 202
▁Filme 202
▁Lebensmittel 202
▁Manche 202
▁Müll 202
▁Solar 202
▁Statistik 202
▁Zeitung 202
▁deutlich 202
▁herzustellen 202
▁natürliche 202
▁nett 202
▁wesentlich 202
nderung 201
ual 201
wissenschaft 201
▁Antworten 201
▁Gefahr 201
▁London 201
▁Spielen 201
ina 200
technologie 200
unter 200
volle 200
▁Ausdruck 200
▁Komplexität 200
▁Materie 200
▁Position 200
▁allgemein 200
▁fl 200
▁legen 200
geführt 199
j 199
press 199
well 199
▁Begriff 199
▁Link 199
▁Titel 199
▁Well 199
▁guter 199
ome 198
schloss 198
▁Aufnahme 198
▁Todes 198
▁Verfügung 198
▁Veränderungen 198
▁bloß 198
▁emotional 198
▁frühen 198
▁jemandem 198
ball 197
kreis 197
schaftliche 197
struktur 197
wirkung 197
▁500 197
▁Afghanistan 197
▁Chris 197
▁Gal 197
▁Nähe 197
▁größeren 197
▁km 197
▁verbringen 197
▁wenige 197
test 196
▁Beruf 196
▁Brot 196
▁Insel 196
▁Maschinen 196
▁Schutz 196
▁begonnen 196
▁total 196
The 195
bank 195
forschung 195
nahme 195
prüf 195
stimmen 195
verständlich 195
▁24 195
▁Fluss 195
▁Schreib 195
▁gegangen 195
▁trifft 195
▁wichtigsten 195
Warum 194
by 194
gehend 194
hafte 194
isierte 194
ize 194
lied 194
stadt 194
uk 194
▁Architekt 194
▁Damit 194
▁Golf 194
▁Großbritannien 194
▁Karriere 194
▁Loch 194
▁Neuronen 194
▁Spa 194
▁Volk 194
▁entstehen 194
▁nachhaltig 194
ding 193
fra 193
macht 193
schauen 193
▁Blog 193
▁Gi 193
▁Klein 193
▁Mut 193
▁Sozial 193
▁fallen 193
▁gebe 193
▁heran 193
▁langen 193
jahr 192
mäßig 192
▁Kohle 192
▁Kreativität 192
▁Post 192
▁Tieren 192
▁Tochter 192
▁Tumor 192
▁dorthin 192
▁entschied 192
▁genutzt 192
▁ho 192
▁modern 192
▁nochmal 192
▁spezielle 192
▁voraus 192
ki 191
meter 191
schütte 191
▁Ansicht 191
▁Gefühle 191
▁Knochen 191
▁Museum 191
▁Par 191
▁Typen 191
▁kurze 191
▁notwendig 191
erei 190
füllen 190
tür 190
▁Erfahrungen 190
▁Erstens 190
▁Inter 190
▁Lang 190
▁Terror 190
▁Zusammenhang 190
▁behandelt 190
▁folgt 190
▁hört 190
▁sowie 190
," 189
▁Erinnerung 189
▁Gegend 189
▁Temperatur 189
▁The 189
▁Virus 189
▁Waffen 189
▁ba 189
▁chinesische 189
▁enorme 189
▁normale 189
gie 188
ition 188
▁Andere 188
▁Drei 188
▁Kapital 188
▁Rand 188
▁Unser 188
▁dritten 188
▁erleben 188
▁visuelle 188
Wenn 187
gram 187
möglich 187
schütz 187
wunder 187
ziehung 187
▁Boot 187
▁Häuser 187
▁Kontakt 187
▁Zelle 187
▁bemerkenswert 187
▁erwähnt 187
▁nützlich 187
▁teil 187
ana 186
app 186
gung 186
halb 186
hilfe 186
lapp 186
liebe 186
▁300 186
▁Ecke 186
▁Holz 186
▁Infrastruktur 186
▁Intelligenz 186
▁Richtig 186
▁Stil 186
▁Unterschiede 186
▁Zentrum 186
▁ex 186
▁kontrollieren 186
▁o 186
▁untersucht 186
viel 185
▁At 185
▁Durchschnitt 185
▁High 185
▁Iran 185
▁Resultat 185
▁Richard 185
▁Sauerstoff 185
▁Wandel 185
▁daß 185
▁geschafft 185
▁lustig 185
▁spät 185
alter 184
tete 184
öpfe 184
üge 184
▁Ausbildung 184
▁Gesellschaften 184
▁Gewebe 184
▁Haar 184
▁amerikanische 184
▁fühle 184
▁mach 184
▁wählen 184
fluss 183
▁Lieblings 183
▁Massen 183
▁Of 183
▁Schlag 183
▁Vertrauen 183
▁Vogel 183
▁entlang 183
▁riesigen 183
▁westliche 183
▁öffnen 183
are 182
ey 182
wo 182
za 182
zimmer 182
▁Op 182
▁Rede 182
▁Rot 182
▁beobachtet 182
▁brauchte 182
▁endlich 182
▁erlauben 182
▁ermöglichen 182
▁genetische 182
Ju 181
drücke 181
maß 181
▁Bildschirm 181
▁Con 181
▁Freunden 181
▁Verbindungen 181
▁Welche 181
▁lä 181
▁spreche 181
▁überzeugt 181
anischen 180
neu 180
zel 180
▁Etwa 180
▁Fernseh 180
▁Forscher 180
▁Gesetze 180
▁Haben 180
▁Mess 180
▁Perspektive 180
▁Polizei 180
▁Sonnen 180
▁Str 180
▁Uni 180
▁nehme 180
▁test 180
▁verfügbar 180
kosystem 179
part 179
stoß 179
▁Bett 179
▁Hai 179
▁Hinter 179
▁Produktion 179
▁Unternehmer 179
▁Wald 179
▁aufgenommen 179
▁benötigen 179
▁existieren 179
▁fehl 179
▁ha 179
▁Basis 178
▁Schluss 178
▁Wohn 178
▁fühlt 178
▁inspiriert 178
▁modernen 178
▁neuer 178
▁starke 178
▁technische 178
▁verw 178
funktion 177
▁Landwirtschaft 177
▁Los 177
▁Mill 177
▁Wunsch 177
▁erforschen 177
▁fuhr 177
▁gewonnen 177
▁kulturelle 177
▁online 177
Wo 176
fahrt 176
organ 176
▁Brief 176
▁Einsatz 176
▁Kunden 176
▁Mai 176
▁Tasche 176
▁do 176
▁fragt 176
▁handeln 176
▁typisch 176
▁weiterhin 176
ration 175
spiegel 175
zählen 175
▁Atmosphäre 175
▁Bienen 175
▁Erfindung 175
▁Gewicht 175
▁Landschaft 175
▁Schwarz 175
▁entscheidend 175
▁kenne 175
▁okay 175
▁stellten 175
fährt 174
gelassen 174
nimmt 174
projekt 174
schule 174
▁Bra 174
▁Dort 174
▁Ehe 174
▁Sekunde 174
▁Werkzeug 174
▁Zivilisation 174
▁Zusammenarbeit 174
▁investieren 174
▁konzentriert 174
▁politischen 174
▁selber 174
▁sicherlich 174
▁wunderschöne 174
Er 173
lau 173
zuführen 173
▁Ansatz 173
▁Chirurg 173
▁Stufe 173
▁drehen 173
▁durchgeführt 173
▁reagieren 173
▁sozusagen 173
▁zusätzlich 173
für 172
gewinn 172
ippe 172
riff 172
▁Fernsehen 172
▁Kaffee 172
▁Mitglied 172
▁Paul 172
▁Steuer 172
▁begeistert 172
▁erkannte 172
▁rechten 172
tiere 171
werte 171
▁Aufgaben 171
▁Hintergrund 171
▁Irak 171
▁Mc 171
▁Meilen 171
▁Nehmen 171
▁Objekte 171
▁Schiff 171
▁West 171
▁dahin 171
▁inner 171
▁nu 171
▁passen 171
▁vollkommen 171
fügen 170
ies 170
zusehen 170
▁Faktor 170
▁Mehr 170
▁Pen 170
▁Stoff 170
▁Tausende 170
▁Wüste 170
▁beeinflussen 170
▁dagegen 170
▁erlebt 170
▁qu 170
▁wohin 170
ass 169
fällig 169
günstig 169
quelle 169
rechnen 169
sphäre 169
▁Cha 169
▁Drogen 169
▁Fünf 169
▁Moleküle 169
▁Radio 169
▁Stand 169
▁berühmte 169
▁bitten 169
▁gewöhnlich 169
▁habt 169
able 168
lief 168
schalten 168
tanz 168
▁Dienst 168
▁Sorgen 168
▁Standard 168
▁Trick 168
▁Vielfalt 168
▁krank 168
▁steigen 168
▁teilt 168
▁verdienen 168
▁wunderbar 168
ehren 167
gefühl 167
unternehmen 167
zeichen 167
▁Bedingungen 167
▁Erklärung 167
▁Fach 167
▁Gar 167
▁Gesch 167
▁Kontinent 167
▁Mütter 167
▁Patient 167
▁Steve 167
▁blieb 167
▁buchstäblich 167
▁geführt 167
▁herausgefunden 167
▁hinweg 167
▁stecken 167
▁ähnliche 167
ali 166
gegen 166
gericht 166
mine 166
ografie 166
▁2000 166
▁Insekten 166
▁Kräfte 166
▁Niemand 166
▁Untersuchung 166
▁bat 166
▁bezahlt 166
▁darf 166
▁start 166
▁umgehen 166
Pro 165
ata 165
ci 165
ial 165
illa 165
liebt 165
use 165
▁Dia 165
▁Drittel 165
▁Identität 165
▁Politiker 165
▁Strukturen 165
▁Tradition 165
▁gilt 165
▁kämpfen 165
▁national 165
▁nötig 165
▁sing 165
▁wiederum 165
ations 164
daten 164
hört 164
off 164
tauchen 164
▁Diskussion 164
▁Grün 164
▁Mode 164
▁Wahrnehmung 164
▁entsteht 164
▁halte 164
▁wundervolle 164
Na 163
gänge 163
hu 163
hänge 163
pot 163
▁Bauern 163
▁Fleisch 163
▁Geheimnis 163
▁Geräte 163
▁Masse 163
▁Männern 163
▁dank 163
▁erstellt 163
▁hängt 163
▁sogenannte 163
▁stolz 163
Nun 162
jo 162
menge 162
pack 162
produkt 162
▁45 162
▁Ben 162
▁Brust 162
▁Facebook 162
▁Opfer 162
▁Pf 162
▁bezahlen 162
▁davor 162
▁drin 162
▁hauptsächlich 162
▁is 162
▁passt 162
▁scheinen 162
▁schien 162
▁the 162
▁unbedingt 162
▁werfen 162
▁wuchs 162
kunft 161
pla 161
vis 161
wandel 161
▁Ernährung 161
▁Jungs 161
▁Unterstützung 161
▁gelangen 161
▁persönlich 161
▁sitzt 161
Du 160
holen 160
ogen 160
red 160
▁Affen 160
▁Lektion 160
▁Sehr 160
▁Zweck 160
▁aktuelle 160
▁auseinander 160
▁außerdem 160
▁besitzen 160
▁bi 160
▁erhält 160
▁erstaunliche 160
▁kommunizieren 160
▁usw 160
▁zerstört 160
bildung 159
falte 159
geteilt 159
line 159
regel 159
▁Fläche 159
▁Kann 159
▁Kurs 159
▁Organisationen 159
▁Pol 159
▁Seine 159
▁Sport 159
▁Zeichen 159
▁dieselbe 159
▁kosten 159
▁letztendlich 159
Sie 158
steigen 158
weil 158
▁Krise 158
▁Tanz 158
▁basiert 158
▁falsche 158
▁get 158
▁leer 158
▁mittel 158
▁sorgen 158
gegangen 157
gh 157
material 157
minister 157
schluss 157
sichtlich 157
stall 157
star 157
▁150 157
▁Fabrik 157
▁Grafik 157
▁Vo 157
▁beschreiben 157
▁erstellen 157
▁grau 157
▁halb 157
▁oh 157
▁voran 157
Ha 156
hor 156
ley 156
ppel 156
schritt 156
▁Code 156
▁End 156
▁Fal 156
▁Großteil 156
▁Milliarde 156
▁Stamm 156
▁Würde 156
▁Zimmer 156
▁per 156
▁versteckt 156
▁überrascht 156
Mo 155
arch 155
design 155
erseits 155
fried 155
förder 155
wagen 155
▁Arch 155
▁Experten 155
▁Kerl 155
▁Nutzen 155
▁Rätsel 155
▁Strategie 155
▁bedeutend 155
▁betrifft 155
▁effizient 155
▁physische 155
▁töten 155
bewegung 154
gan 154
sätze 154
treffen 154
ulation 154
zugeben 154
▁Christ 154
▁City 154
▁College 154
▁Fällen 154
▁Rad 154
▁Themen 154
▁Viel 154
▁chemische 154
▁hergestellt 154
▁kalt 154
▁klingt 154
▁li 154
▁möglicherweise 154
▁verbessert 154
▁verfolgen 154
kultur 153
rieben 153
ular 153
▁Dinosaurier 153
▁Experimente 153
▁Karten 153
▁Online 153
▁Rahmen 153
▁Seh 153
▁Sein 153
▁Teilchen 153
▁Vögel 153
▁ernsthaft 153
▁gegenseitig 153
▁hohen 153
▁inspirieren 153
▁reicht 153
▁zukünftige 153
chi 152
dauer 152
krebs 152
linie 152
muster 152
schaffen 152
▁trotz 152
dienst 151
speicher 151
ty 151
udi 151
▁Absicht 151
▁Bitte 151
▁Mir 151
▁Neben 151
▁Pflege 151
▁Träume 151
▁Umstände 151
▁Verkehr 151
▁entwerfen 151
▁übertragen 151
Gesundheitswesen 150
Tech 150
film 150
gesehen 150
schaftlichen 150
stimmt 150
würdig 150
▁Au 150
▁Brücke 150
▁Kontext 150
▁Miss 150
▁Städten 150
▁Unterhaltung 150
▁Zucker 150
▁anfing 150
▁interessieren 150
▁vermutlich 150
▁wichtigste 150
Mail 149
cy 149
stern 149
▁Außen 149
▁Haufen 149
▁Hunger 149
▁Katastrophe 149
▁Kindheit 149
▁Militär 149
▁Modelle 149
▁Streit 149
▁Verstand 149
▁bestimmen 149
▁eingesetzt 149
▁gestalten 149
▁has 149
▁send 149
▁verantwortlich 149
▁verteilt 149
gebaut 148
graphie 148
▁Heimat 148
▁Kohlenstoff 148
▁Mission 148
▁Professor 148
▁Satz 148
▁Wettbewerb 148
▁alleine 148
▁at 148
▁erster 148
▁erzähle 148
▁irgendwann 148
▁künstliche 148
▁lieber 148
▁stärker 148
▁verhindern 148
▁verwandelt 148
▁wächst 148
anlage 147
geber 147
lam 147
nisse 147
samkeit 147
▁400 147
▁Augenblick 147
▁Ball 147
▁Dimension 147
▁Grundlage 147
▁Gründen 147
▁Norden 147
▁Schlaf 147
▁Soldaten 147
▁Verlust 147
▁fiel 147
▁hole 147
▁interagieren 147
▁kümmern 147
▁nah 147
▁schließen 147
▁tue 147
anstalt 146
fläche 146
fähigkeit 146
gründe 146
▁Ameisen 146
▁Elemente 146
▁Fahrzeug 146
▁Feind 146
▁Gedanke 146
▁Laptop 146
▁Muskel 146
▁Schuld 146
▁dran 146
▁getötet 146
▁sichtbar 146
▁verwandeln 146
▁zugänglich 146
com 145
ehrt 145
ity 145
leg 145
sagt 145
sum 145
wirken 145
▁Hör 145
▁Innen 145
▁Investition 145
▁Küste 145
▁Restaurant 145
▁September 145
▁angesehen 145
▁dürfen 145
▁einsetzen 145
▁gehabt 145
▁irgendetwas 145
▁leider 145
▁übrig 145
ake 144
effekt 144
ffnung 144
gekommen 144
lösen 144
ologe 144
▁Kalifornien 144
▁Maus 144
▁Seit 144
▁erhöht 144
▁kennt 144
▁kostenlos 144
▁organisiert 144
▁unsichtbar 144
aufnahme 143
ffentlichkeit 143
jährigen 143
leuchten 143
theorie 143
▁Bedürfnisse 143
▁Denk 143
▁Folie 143
▁Handlung 143
▁Pferd 143
▁Weiß 143
▁frage 143
▁gemein 143
▁hoffentlich 143
▁vorhanden 143
gabe 142
grad 142
graph 142
lit 142
ordnet 142
ori 142
rechnet 142
sex 142
sorge 142
sprache 142
▁10.000 142
▁AIDS 142
▁Folge 142
▁Institutionen 142
▁Interaktion 142
▁Prä 142
▁Sag 142
▁Schnitt 142
▁Wild 142
▁c 142
▁geo 142
▁teuer 142
▁traurig 142
▁wertvoll 142
ance 141
bewusst 141
masse 141
rage 141
reise 141
spruch 141
ther 141
win 141
▁Band 141
▁Gericht 141
▁Sitz 141
▁Zweitens 141
▁as 141
▁bieten 141
▁erhielt 141
▁hunderte 141
▁irgend 141
▁lebendig 141
▁relativ 141
▁rief 141
$ 140
auto 140
gehör 140
getragen 140
lust 140
mmt 140
stab 140
wissenschaftlich 140
▁Charles 140
▁Diagramm 140
▁George 140
▁Gesichter 140
▁Metapher 140
▁Märkte 140
▁Probe 140
▁Schicht 140
▁Seele 140
▁Viren 140
▁indische 140
▁studiert 140
▁wieso 140
▁öffnet 140
kette 139
lösung 139
schneiden 139
station 139
steuert 139
ächte 139
▁Annahme 139
▁Galaxien 139
▁Händen 139
▁Nano 139
▁Pra 139
▁Spiegel 139
▁Spieler 139
▁Washington 139
▁bedeuten 139
▁gehalten 139
▁verbreiten 139
gebrochen 138
litz 138
put 138
zukommen 138
▁Doktor 138
▁Einheit 138
▁Küche 138
▁Netzwerke 138
▁Privat 138
▁Ti 138
▁berührt 138
▁finanziell 138
▁klassische 138
bit 137
bücher 137
rand 137
uz 137
üchtig 137
▁Argument 137
▁Bruder 137
▁Eindruck 137
▁Gegenteil 137
▁Hinweis 137
▁Schau 137
▁Symbol 137
▁allerdings 137
▁aufbauen 137
▁aufhören 137
▁grosse 137
▁lernt 137
▁stammt 137
▁wartet 137
ektion 136
geschlagen 136
kind 136
krankheit 136
person 136
zelle 136
▁35 136
▁England 136
▁Israel 136
▁Klang 136
▁Lern 136
▁Minute 136
▁Organismen 136
▁Tiefe 136
▁Wirkung 136
▁Zell 136
▁erscheinen 136
▁gelesen 136
▁mindestens 136
▁private 136
▁teure 136
▁trägt 136
▁unterstützt 136
▁vergleichen 136
La 135
krise 135
pflanzen 135
urf 135
▁Individuen 135
▁Mund 135
▁Null 135
▁Pinguin 135
▁Trend 135
▁Zitat 135
▁Zug 135
▁el 135
▁könnt 135
▁ni 135
▁schlimmer 135
▁soviel 135
ep 134
ham 134
lohn 134
läuft 134
stimmung 134
ähle 134
▁Besitz 134
▁Bur 134
▁Gegensatz 134
▁Lebewesen 134
▁Malaria 134
▁Milch 134
▁Moral 134
▁Stärke 134
▁beschrieb 134
▁global 134
▁ungewöhnlich 134
▁verbindet 134
lop 133
▁Gedicht 133
▁Laufe 133
▁Mexiko 133
▁Phase 133
▁Räume 133
▁Tom 133
▁Webseite 133
▁Zeitalter 133
▁brauche 133
▁kürzlich 133
▁still 133
▁unterscheiden 133
▁vertraut 133
▁zahlen 133
Bahn 132
aktion 132
sprech 132
züge 132
▁Garten 132
▁Islam 132
▁Theater 132
▁Verhältnis 132
▁entworfen 132
▁gestorben 132
▁mathematische 132
▁zog 132
▁zunächst 132
haltung 131
hof 131
kräfte 131
losigkeit 131
möglichkeiten 131
qui 131
schlüsse 131
▁Atem 131
▁Ausmaß 131
▁Außerdem 131
▁Darwin 131
▁Definition 131
▁Emotionen 131
▁Füße 131
▁Ganz 131
▁Helden 131
▁Korruption 131
▁Nigeria 131
▁Zauber 131
▁drüben 131
▁entspricht 131
▁fördern 131
▁gestern 131
▁grundsätzlich 131
▁his 131
▁lo 131
▁rück 131
▁stabil 131
haben 130
meister 130
phon 130
schläge 130
schätzt 130
stitution 130
▁Einstellung 130
▁Folgen 130
▁Fremd 130
▁Grenze 130
▁Lager 130
▁MIT 130
▁Pre 130
▁Website 130
▁beinhaltet 130
▁fern 130
▁heisst 130
▁reduzieren 130
▁spring 130
▁sub 130
freund 129
witz 129
▁Chemie 129
▁Erlebnis 129
▁Präsentation 129
▁UN 129
▁abhängig 129
▁breite 129
▁erscheint 129
▁gäbe 129
▁radikal 129
▁wa 129
▁zerstören 129
halte 128
orientiert 128
schwer 128
stärke 128
verletz 128
ündig 128
▁Einstein 128
▁Gesamt 128
▁Hinsicht 128
▁Laden 128
▁Michael 128
▁Mitarbeiter 128
▁Obwohl 128
▁Ph 128
▁Wohl 128
▁Zahn 128
▁alter 128
▁half 128
▁komisch 128
▁schlau 128
etter 127
ua 127
▁Elektrizität 127
▁Jemand 127
▁Ober 127
▁Patent 127
▁Weltraum 127
▁Zuerst 127
▁bo 127
▁dennoch 127
▁deswegen 127
▁erfinden 127
▁fängt 127
▁geschickt 127
▁gewaltige 127
▁kn 127
▁kontrolliert 127
▁traditionellen 127
▁vermute 127
▁üblich 127
liste 126
ov 126
▁Cr 126
▁Geschlecht 126
▁Korallen 126
▁Nachde 126
▁Paar 126
▁Planet 126
▁Sub 126
▁Wurzel 126
▁entgegen 126
▁kaufte 126
▁miss 126
artig 125
ble 125
gebildet 125
low 125
nahm 125
▁Abschluss 125
▁Berechnung 125
▁Bericht 125
▁Gestalt 125
▁Kirche 125
▁Pass 125
▁doppelt 125
▁religiöse 125
▁wieviel 125
▁zentrale 125
Achse 124
fragen 124
kosten 124
tief 124
will 124
▁000 124
▁Aktion 124
▁Anteil 124
▁Kabel 124
▁aufgebaut 124
▁beantworten 124
▁bed 124
▁solch 124
itz 123
klasse 123
kunde 123
lektr 123
rs 123
▁Katze 123
▁Löcher 123
▁Medikament 123
▁Rob 123
▁Ruf 123
▁Schimpansen 123
▁TEDx 123
▁Training 123
▁Vorfahren 123
▁anwenden 123
▁beeindruckend 123
▁definieren 123
▁quasi 123
av 122
can 122
größe 122
kap 122
leitung 122
plätze 122
werfen 122
zentrum 122
zählt 122
é 122
▁Batterie 122
▁Güte 122
▁Nachbarn 122
▁Reich 122
▁Riesen 122
▁Spur 122
▁World 122
▁aufzubauen 122
▁gebraucht 122
▁gespielt 122
▁lie 122
▁meiste 122
▁train 122
30 121
ami 121
organisation 121
trägt 121
val 121
versorgung 121
▁0 121
▁Acht 121
▁Auswahl 121
▁Belohnung 121
▁Dach 121
▁Del 121
▁Interview 121
▁Koch 121
▁Kombination 121
▁Sprech 121
▁Verbesserung 121
▁besagt 121
▁bietet 121
▁einzigartig 121
▁fehlt 121
▁hinten 121
▁klug 121
▁saubere 121
▁vermitteln 121
▁äußerst 121
auch 120
fertig 120
streben 120
typ 120
wärme 120
▁Depression 120
▁Nase 120
▁Partei 120
▁Port 120
▁Start 120
▁Twitter 120
▁Wohlstand 120
▁here 120
▁vertrauen 120
▁vi 120
▁wild 120
aktiv 119
bringt 119
dreht 119
erkennung 119
gibt 119
metri 119
▁Anreiz 119
▁Galaxie 119
▁Geschenk 119
▁Hotel 119
▁Kreuz 119
▁Potential 119
▁Südafrika 119
▁Tim 119
▁Times 119
▁Werbung 119
▁Witz 119
▁begrenzt 119
▁darstellen 119
▁gewählt 119
▁kurzem 119
▁studieren 119
▁verschwinden 119
▁zunehmend 119
Man 118
pur 118
wissenschaftler 118
▁75 118
▁Allgemein 118
▁Angriff 118
▁Dan 118
▁Fest 118
▁Köpfe 118
▁NASA 118
▁Rakete 118
▁Schulter 118
▁Wetter 118
▁blind 118
▁dauern 118
▁ersetzen 118
▁experiment 118
▁schickte 118
▁steigt 118
eidung 117
frau 117
stunde 117
▁App 117
▁Ausstellung 117
▁Australien 117
▁Eigentlich 117
▁Ereignisse 117
▁Pilz 117
▁Prototyp 117
▁Sechs 117
▁Zuhause 117
▁Zwischen 117
▁beinahe 117
▁beschäftigen 117
▁dramatisch 117
▁feststellen 117
▁profit 117
▁schätzen 117
set 116
technik 116
trakt 116
vermögen 116
▁Air 116
▁Damen 116
▁Fels 116
▁Fälle 116
▁Kilo 116
▁Schatten 116
▁Sogar 116
▁Toilette 116
▁Wesentlichen 116
▁beliebt 116
▁besorgt 116
▁bildet 116
▁geändert 116
▁individuelle 116
▁kriegen 116
▁sta 116
▁weibliche 116
gesellschaft 115
träger 115
▁Ausgabe 115
▁Führer 115
▁Hall 115
▁Komponente 115
▁Metall 115
▁Molekül 115
▁Stock 115
▁Straf 115
▁automatisch 115
▁gehören 115
▁kreieren 115
▁mark 115
▁obere 115
▁v 115
▁verfolgt 115
▁verschieden 115
▁virtuelle 115
gar 114
ji 114
schaltet 114
zip 114
▁Cor 114
▁Euro 114
▁Figur 114
▁Gemein 114
▁Großmutter 114
▁Neues 114
▁Roman 114
▁School 114
▁Schrift 114
▁Zehn 114
▁Zuschauer 114
▁berichtet 114
▁fasziniert 114
▁gebeten 114
▁sparen 114
▁trug 114
artikel 113
▁Darstellung 113
▁Existenz 113
▁Farm 113
▁James 113
▁Konsum 113
▁Kurve 113
▁Maßstab 113
▁Schwierigkeiten 113
▁Teenager 113
▁anschaut 113
▁dumm 113
▁erforscht 113
▁seitdem 113
▁stattdessen 113
▁verdient 113
Li 112
reife 112
rennt 112
zuhalten 112
▁Bedrohung 112
▁Element 112
▁Flügel 112
▁Folgendes 112
▁Kap 112
▁Thomas 112
▁Wieso 112
▁gefällt 112
▁gla 112
▁jährlich 112
▁nieder 112
▁zusammenarbeite 112
So 111
feuer 111
ffizienz 111
melde 111
positiv 111
q 111
schnei 111
schreiben 111
tech 111
turm 111
ya 111
▁2008 111
▁Aussage 111
▁Betrieb 111
▁Bibliothek 111
▁Eier 111
▁Entfernung 111
▁Freundin 111
▁Grippe 111
▁Haushalt 111
▁Schild 111
▁Stimm 111
▁Stuhl 111
▁Unfall 111
▁besuchen 111
▁britische 111
▁gelebt 111
▁lediglich 111
▁super 111
graben 110
ions 110
old 110
▁Ausnahme 110
▁Blatt 110
▁Dokument 110
▁Erwartung 110
▁Journalist 110
▁Klinik 110
▁Kopie 110
▁Rezept 110
▁Ski 110
▁Wolken 110
▁eindeutig 110
▁etc 110
▁gründete 110
▁hell 110
▁hol 110
Co 109
Epidemie 109
Wow 109
berraschung 109
therapie 109
▁Anruf 109
▁Fehl 109
▁Harvard 109
▁Kapitel 109
▁Respekt 109
▁She 109
▁Teufel 109
▁Wikipedia 109
▁Zähne 109
▁außen 109
▁definiert 109
▁drauf 109
▁empfinde 109
▁enorm 109
▁erkennt 109
▁mittlere 109
▁ruhig 109
▁unendlich 109
▁wander 109
▁99 108
▁Armee 108
▁Bombe 108
▁Chemikalien 108
▁Fokus 108
▁Gemälde 108
▁Kanada 108
▁Nutz 108
▁Spezial 108
▁Stammzellen 108
▁Student 108
▁Tour 108
▁Wagen 108
▁pack 108
▁versteht 108
erfolg 107
ermaßen 107
geleitet 107
schlägt 107
zwei 107
▁Blase 107
▁Ehre 107
▁Fett 107
▁Kein 107
▁Kenia 107
▁Könnte 107
▁Magie 107
▁Robert 107
▁Rock 107
▁SMS 107
▁Schuhe 107
▁Tor 107
▁Weiter 107
▁Winter 107
▁auto 107
▁beschreibt 107
▁darstellt 107
▁erweitern 107
Hey 106
our 106
schirm 106
wässer 106
▁Damals 106
▁Echtzeit 106
▁Gegenwart 106
▁Interessante 106
▁Mikroben 106
▁Pakistan 106
▁Pfund 106
▁Symmetrie 106
▁Umfeld 106
▁akzeptieren 106
▁gegründet 106
▁langfristig 106
▁langweilig 106
▁ma 106
▁spannend 106
▁wach 106
bezüglich 105
geworfen 105
kin 105
oberfläche 105
plikat 105
seitige 105
▁Cent 105
▁Flasche 105
▁Frank 105
▁Gib 105
▁Gleichung 105
▁Inspiration 105
▁Jack 105
▁Marketing 105
▁Mil 105
▁Schlange 105
▁Schweine 105
▁Therapie 105
▁Viertel 105
▁Weltkrieg 105
▁flog 105
▁fundamental 105
▁tötet 105
▁vermeiden 105
gemacht 104
gerufen 104
ism 104
ness 104
ui 104
▁Dutzend 104
▁Fahrrad 104
▁Kongress 104
▁Photo 104
▁Plattform 104
▁Stahl 104
▁Szene 104
▁Th 104
▁Unterricht 104
▁Verbrechen 104
▁Zunächst 104
▁ausgebildet 104
▁blau 104
▁dick 104
▁hieß 104
▁hinauf 104
▁moment 104
▁vorzustellen 104
Pa 103
child 103
eign 103
essel 103
förmig 103
insel 103
lässt 103
straße 103
▁600 103
▁Chi 103
▁Deutschland 103
▁Multi 103
▁Spektrum 103
▁Tonnen 103
▁Wechsel 103
▁Zufall 103
▁intensiv 103
▁irgendjemand 103
▁liebte 103
▁präsentiert 103
▁reduziert 103
▁stehe 103
▁überwinden 103
Wissen 102
burg 102
ged 102
ica 102
wohl 102
▁22 102
▁Ah 102
▁Alternative 102
▁Brit 102
▁Deswegen 102
▁Klassenzimmer 102
▁Nachbarschaft 102
▁Top 102
▁Wohnung 102
▁antwortete 102
▁dünn 102
▁höre 102
▁ta 102
▁wisst 102
dom 101
hielt 101
hängt 101
ordnung 101
politik 101
ruhe 101
üssig 101
▁Kleidung 101
▁Knie 101
▁Schlacht 101
▁Stattdessen 101
▁Ursache 101
▁demokratische 101
▁entfernen 101
▁extra 101
▁negative 101
▁unterrichten 101
▁verstehe 101
ay 100
gesellschaftlich 100
ländische 100
not 100
schränkung 100
waffe 100
zieh 100
▁Brasilien 100
▁Schaden 100
▁Seide 100
▁Transport 100
▁Verbreitung 100
▁Verwendung 100
▁Wände 100
▁bemerken 100
▁englische 100
▁enthält 100
▁ergibt 100
▁erschien 100
▁froh 100
▁geholfen 100
▁gekauft 100
▁sowas 100
▁transport 100
▁wachsende 100
atom 99
schließt 99
verse 99
▁100.000 99
▁23 99
▁Debatte 99
▁Gemüse 99
▁Magnet 99
▁Risiken 99
▁Show 99
▁Skulptur 99
▁Videospiele 99
▁Völker 99
▁ansieht 99
▁besitzt 99
▁beteiligt 99
▁darunter 99
▁elektronische 99
20 98
berzeugung 98
ierbar 98
sammlung 98
source 98
▁Blätter 98
▁Fast 98
▁Leider 98
▁Mehrheit 98
▁Ohne 98
▁Persönlichkeit 98
▁Presse 98
▁Skelett 98
▁Werbe 98
▁bekomme 98
▁böse 98
▁dunkel 98
▁durchführen 98
▁iPhone 98
▁kümmert 98
▁liefern 98
▁liefert 98
▁lies 98
▁technologische 98
▁verblüffend 98
▁verließ 98
▁verschwunden 98
▁vorbereitet 98
▁wüsste 98
groß 97
käme 97
labor 97
uanten 97
verkehr 97
▁Afrikaner 97
▁Angestellte 97
▁Asien 97
▁Besuch 97
▁Don 97
▁Erinner 97
▁Geburtstag 97
▁General 97
▁Hindernis 97
▁Lebenserwartung 97
▁Mangel 97
▁Satelliten 97
▁Schicksal 97
▁Talent 97
▁basierend 97
▁been 97
▁besessen 97
▁betroffen 97
▁gewann 97
▁hinunter 97
▁infiziert 97
▁klinische 97
▁kognitive 97
▁schlafen 97
▁unmittelbar 97
bogen 96
geschäft 96
hob 96
hop 96
läufe 96
mitglied 96
trick 96
▁1.000 96
▁Alltag 96
▁Chinese 96
▁Francisco 96
▁Impfstoff 96
▁Joe 96
▁Literatur 96
▁Peter 96
▁Prinzipien 96
▁Sequenz 96
▁Serie 96
▁beibringen 96
▁betreiben 96
▁gefangen 96
▁industrielle 96
▁wechseln 96
▁wiederholt 96
▁wofür 96
fliegen 95
ied 95
sicherheit 95
zeichnung 95
älteste 95
▁2007 95
▁Asteroid 95
▁Buchstaben 95
▁Gerechtigkeit 95
▁Invest 95
▁Kenn 95
▁Open 95
▁Sonnenlicht 95
▁Stra 95
▁Such 95
▁Ursprung 95
▁antworte 95
▁aufgeregt 95
▁aufgewachsen 95
▁erhöhen 95
▁erweitert 95
▁eröffnet 95
▁flach 95
▁kollektive 95
▁präsent 95
▁sammelt 95
▁schwach 95
▁ökologisch 95
Dollar 94
geschnitten 94
geschwindigkeit 94
glücklicherweise 94
hai 94
holz 94
liegende 94
▁Alpha 94
▁Bibel 94
▁Billionen 94
▁Blau 94
▁Chip 94
▁GPS 94
▁Herstellung 94
▁Jugend 94
▁Kugel 94
▁Last 94
▁Teilnehmer 94
▁Voll 94
▁Weisheit 94
▁fu 94
▁löst 94
▁massive 94
▁trinken 94
▁wünsche 94
Institut 93
Okay 93
bal 93
wissen 93
ähnliche 93
▁250 93
▁Budget 93
▁Ereignis 93
▁Erfinder 93
▁Geschmack 93
▁Krankenhäuser 93
▁Studio 93
▁Teleskop 93
▁Widerstand 93
▁Zerstörung 93
▁dargestellt 93
▁investiert 93
▁kaputt 93
▁knapp 93
▁mochte 93
▁speziell 93
▁teilweise 93
System 92
aussage 92
bricht 92
gypten 92
mehr 92
park 92
spitze 92
▁2010 92
▁Arab 92
▁Beobachtung 92
▁Höhle 92
▁Kolonie 92
▁Nu 92
▁Schnee 92
▁Schwimm 92
▁Status 92
▁Versorgung 92
▁Wärme 92
▁durfte 92
▁fotografiert 92
▁insbesondere 92
▁po 92
▁schwarz 92
▁spa 92
▁spüren 92
▁traditionelle 92
▁wenigstens 92
▁worauf 92
▁wünschte 92
Do 91
einheit 91
produktion 91
stamm 91
ura 91
▁Aufbau 91
▁Dreh 91
▁Einfach 91
▁Freiwillige 91
▁Gebrauch 91
▁Homo 91
▁Population 91
▁Ruhe 91
▁Vorhersage 91
▁Vorträge 91
▁beispielsweise 91
▁drücken 91
▁erkannt 91
▁my 91
▁nachgedacht 91
▁naja 91
▁reisen 91
▁schreibt 91
▁sink 91
▁tödlich 91
▁verglichen 91
▁verlangt 91
▁verursachen 91
▁wahrnehmen 91
▁wovon 91
ani 90
flüge 90
fühlen 90
sistent 90
way 90
▁2005 90
▁Anstatt 90
▁Beach 90
▁Böse 90
▁Extrem 90
▁Geruch 90
▁Hallo 90
▁Mac 90
▁Mauer 90
▁Nutzung 90
▁Polio 90
▁Pollen 90
▁Zeichnung 90
▁dynamisch 90
▁enthalten 90
▁lehrt 90
▁organisieren 90
▁solange 90
▁staatliche 90
▁treiben 90
▁zufrieden 90
& 89
Spiel 89
car 89
hundert 89
ice 89
nehmer 89
schießen 89
studie 89
▁27 89
▁Abfall 89
▁Boston 89
▁Danach 89
▁Fertig 89
▁Hitze 89
▁Illusion 89
▁Island 89
▁Kommentar 89
▁Mich 89
▁Motivation 89
▁Paris 89
▁Star 89
▁Stämme 89
▁Verstehen 89
▁entsprechend 89
▁exakt 89
▁gelbe 89
▁produktiv 89
▁stieg 89
ain 88
ction 88
ebene 88
pie 88
rolle 88
▁Adam 88
▁Analyse 88
▁Chaos 88
▁Chicago 88
▁Cla 88
▁Cyber 88
▁Decke 88
▁Haiti 88
▁Ly 88
▁Lücke 88
▁Obama 88
▁Röntgen 88
▁Sterbe 88
▁Strand 88
▁Tauch 88
▁betrieben 88
▁eingeladen 88
▁getrennt 88
▁hängen 88
▁irgendwelche 88
▁lehren 88
▁tanzen 88
▁verdammt 88
Kreislauf 87
dimensional 87
gewicht 87
kopf 87
link 87
▁1960 87
▁Ballon 87
▁Comic 87
▁Ford 87
▁Gedächtnis 87
▁Kredit 87
▁Medium 87
▁Nadel 87
▁Schließlich 87
▁Sichtweise 87
▁Sonnensystem 87
▁Staub 87
▁Strasse 87
▁Street 87
▁Störung 87
▁Titan 87
▁Täuschung 87
▁dahinter 87
▁dreidimensional 87
▁freue 87
▁gene 87
▁gerettet 87
▁hinzufügen 87
▁illegal 87
▁integriert 87
▁logisch 87
▁reagiert 87
▁seht 87
▁sinnvoll 87
▁taucht 87
▁verletzt 87
▁verliebt 87
▁ökonomische 87
▁überlebt 87
Emissionen 86
Stell 86
ala 86
fressen 86
pflege 86
side 86
strecke 86
strom 86
weiß 86
zone 86
▁Dritte 86
▁Erzählung 86
▁Kreatur 86
▁Level 86
▁Rauch 86
▁Schauspieler 86
▁Schweden 86
▁Sektor 86
▁Spielzeug 86
▁University 86
▁di 86
▁genügend 86
▁heilen 86
▁hi 86
▁kreiert 86
▁nervös 86
▁plan 86
▁startete 86
chirurg 85
fällt 85
gebunden 85
gefasst 85
kapital 85
ächtige 85
▁Denkweise 85
▁Dörfer 85
▁Flüssigkeit 85
▁Mont 85
▁Nachhaltigkeit 85
▁Option 85
▁Psychologie 85
▁Schriftsteller 85
▁Stiftung 85
▁Tele 85
▁Wirklich 85
▁Ya 85
▁angenehm 85
▁ernähren 85
▁gelangt 85
▁konfrontiert 85
▁lebe 85
▁männliche 85
▁regelmäßig 85
▁verliert 85
▁vielmehr 85
▁vorsichtig 85
lies 84
methode 84
politisch 84
rock 84
rump 84
sterblichkeit 84
▁1000 84
▁Chef 84
▁Diagnose 84
▁Erdbeben 84
▁Kongo 84
▁Mama 84
▁Meister 84
▁Philosophie 84
▁Potenzial 84
▁Studierende 84
▁Verfahren 84
▁Verkauf 84
▁erneut 84
▁grundlegend 84
▁hinterlassen 84
▁jung 84
▁ländlichen 84
▁merkwürdig 84
▁offenbar 84
▁optimistisch 84
▁scheinbar 84
▁schuf 84
▁weshalb 84
Robo 83
grat 83
reißen 83
▁Center 83
▁Russland 83
▁Stift 83
▁Säugetier 83
▁Tätigkeit 83
▁YouTube 83
▁Zweifel 83
▁arabische 83
▁begegnen 83
▁landete 83
▁molekulare 83
▁neuro 83
▁physikalische 83
▁spezifische 83
▁unterwegs 83
basierte 82
behörde 82
bertragung 82
gesetz 82
gewandt 82
leuchtet 82
nseits 82
schossen 82
wind 82
▁65 82
▁Anführer 82
▁Angelegenheit 82
▁Anlage 82
▁Dafür 82
▁Darüber 82
▁Eigenschaft 82
▁Impuls 82
▁Karikatur 82
▁Mr 82
▁Stress 82
▁Vergnügen 82
▁Verlangen 82
▁Verletzung 82
▁Vorschlag 82
▁Wann 82
▁Wasserstoff 82
▁befand 82
▁erfand 82
▁fo 82
▁fossil 82
▁furchtbar 82
▁gründen 82
▁optim 82
Fi 81
Origami 81
how 81
lehnen 81
lution 81
männer 81
ries 81
ürzen 81
▁Bestandteil 81
▁Block 81
▁Brustkrebs 81
▁Diplomat 81
▁Frankreich 81
▁Klavier 81
▁Matt 81
▁Platte 81
▁Salz 81
▁Tempo 81
▁Treffen 81
▁berühren 81
▁erfuhr 81
▁finanziert 81
▁komplex 81
▁merken 81
▁rufen 81
▁stoppen 81
▁versorgen 81
amerikanische 80
ence 80
kamera 80
schlaf 80
unterricht 80
▁1990 80
▁Anstieg 80
▁Apple 80
▁Bord 80
▁Farb 80
▁Infektion 80
▁Rettung 80
▁Sprach 80
▁anti 80
▁bio 80
▁ewig 80
▁hand 80
▁unerwartet 80
▁veröffentlichen 80
Projekt 79
To 79
ney 79
schmelz 79
▁Algorithmen 79
▁Dunkelheit 79
▁Enkel 79
▁Gleichgewicht 79
▁Kategorie 79
▁Mäuse 79
▁Nächste 79
▁Phil 79
▁Psycholog 79
▁Spannung 79
▁human 79
▁lächerlich 79
▁mo 79
▁relevant 79
▁risk 79
▁wiederholen 79
▁zurückkehren 79
12 78
entwicklung 78
faktor 78
glück 78
probe 78
▁Brown 78
▁Camp 78
▁Front 78
▁Gipfel 78
▁Ideal 78
▁Neuigkeiten 78
▁bedroht 78
▁bekämpfen 78
▁exponentiell 78
▁fremd 78
▁freundlich 78
▁gemessen 78
▁musikalische 78
▁neigen 78
▁repräsentiert 78
▁schaue 78
▁tu 78
aktivität 77
front 77
hang 77
läufig 77
nnerhalb 77
städte 77
uff 77
äuschen 77
ührt 77
▁Angeles 77
▁Brüder 77
▁Funk 77
▁Globalisierung 77
▁Muslim 77
▁Nahrungsmittel 77
▁Normalerweise 77
▁Pilot 77
▁Plötzlich 77
▁Sorge 77
▁Speicher 77
▁Stanford 77
▁Uganda 77
▁Verteidigung 77
▁Weltbevölkerung 77
▁bedeckt 77
▁fordert 77
▁multi 77
▁nebenbei 77
▁neugierig 77
▁ran 77
▁stirbt 77
Hi 76
Schaltkreis 76
Y 76
con 76
gestalt 76
sprach 76
teressanterweise 76
wichtig 76
▁2009 76
▁Anzeige 76
▁Aufstieg 76
▁Bush 76
▁Dialog 76
▁Einfachheit 76
▁Entwurf 76
▁Fried 76
▁Heutzutage 76
▁Höhepunkt 76
▁Jim 76
▁Käfer 76
▁Lächeln 76
▁Möbel 76
▁Schlechte 76
▁Vagina 76
▁Wichtigste 76
▁Zentral 76
▁aussah 76
▁genießen 76
▁heutige 76
▁inzwischen 76
▁japanische 76
▁kämpft 76
▁mental 76
▁potent 76
▁sexuelle 76
▁sozial 76
▁süß 76
He 75
brachte 75
cor 75
ish 75
physik 75
ria 75
▁Autismus 75
▁Bedarf 75
▁Benzin 75
▁Char 75
▁DH 75
▁Futter 75
▁Gehör 75
▁Ghana 75
▁Italien 75
▁Niveau 75
▁Ruanda 75
▁Standpunkt 75
▁Strecke 75
▁Texas 75
▁Tinte 75
▁Wäre 75
▁alltäglich 75
▁angepasst 75
▁befreien 75
▁dazwischen 75
▁far 75
▁hervorragend 75
▁inklusive 75
▁intellektuelle 75
▁irre 75
▁mutig 75
▁professionelle 75
▁reiste 75
▁roll 75
▁tech 75
Auf 74
blut 74
brecher 74
grafische 74
ifikation 74
ook 74
stätte 74
▁120 74
▁Angebot 74
▁Einwohner 74
▁Higgs 74
▁Hilfs 74
▁Humor 74
▁International 74
▁Jedenfalls 74
▁Juli 74
▁Logik 74
▁Mini 74
▁Mobiltelefon 74
▁Pop 74
▁Schätzung 74
▁Wälder 74
▁benutze 74
▁fliegt 74
▁gestaltet 74
▁gewöhnt 74
▁herrscht 74
▁unglücklich 74
▁wählt 74
▁örtliche 74
Aktivist 73
Chromosom 73
Und 73
bleiben 73
empfindlich 73
figur 73
fleisch 73
gewebe 73
region 73
sammeln 73
stütze 73
▁2004 73
▁28 73
▁Ausrüstung 73
▁Blickwinkel 73
▁Diabetes 73
▁Disziplin 73
▁Entstehung 73
▁Frequenz 73
▁Gift 73
▁Mittlere 73
▁Neugier 73
▁Philip 73
▁Polizist 73
▁Summe 73
▁Wohlbefinden 73
▁evolutionäre 73
▁geschützt 73
▁jegliche 73
▁jeweils 73
▁könne 73
▁sorgt 73
▁systematisch 73
▁verbraucht 73
hirn 72
mission 72
position 72
sensor 72
▁26 72
▁Amazon 72
▁Astronom 72
▁DNS 72
▁Eigentum 72
▁Erkrankungen 72
▁Green 72
▁Hypothese 72
▁Jugendliche 72
▁Korea 72
▁Martin 72
▁Moskito 72
▁Original 72
▁Schweiz 72
▁Schädel 72
▁Slum 72
▁Tragödie 72
▁anscheinend 72
▁ausgewählt 72
▁geistige 72
▁interpret 72
▁selbe 72
Cola 71
Source 71
drehen 71
king 71
leidenschaftlich 71
nutzung 71
ors 71
ory 71
temperatur 71
unwahrscheinlich 71
▁36 71
▁Bürgerkrieg 71
▁Derek 71
▁Ernst 71
▁Feedback 71
▁Intuition 71
▁Konsumenten 71
▁Mikroskop 71
▁Onkel 71
▁Philosoph 71
▁Ritual 71
▁Sky 71
▁Sätze 71
▁Waffe 71
▁Ziege 71
▁feiern 71
▁identifizieren 71
▁identisch 71
▁jüngere 71
▁korrekt 71
▁mittlerweile 71
▁umgekehrt 71
▁verschwindet 71
▁wütend 71
aufgabe 70
bedarf 70
bombe 70
gebäude 70
genoss 70
gestoßen 70
streu 70
▁32 70
▁Abhängigkeit 70
▁Anpassung 70
▁Babies 70
▁Baseball 70
▁Beschreibung 70
▁Hyper 70
▁Juni 70
▁Microsoft 70
▁Schokolade 70
▁Winkel 70
▁Zufriedenheit 70
▁analysieren 70
▁angemessen 70
▁argument 70
▁auftaucht 70
▁ausschließlich 70
▁beschränkt 70
▁design 70
▁europäische 70
▁französische 70
▁ju 70
▁nachdenkt 70
▁psychologische 70
▁rest 70
▁spirit 70
▁vermittelt 70
drängt 69
ello 69
ew 69
fahrzeug 69
gefertigt 69
gestiegen 69
out 69
philosoph 69
röhre 69
tic 69
verbrauch 69
▁1980 69
▁2006 69
▁BIP 69
▁Bedürfnis 69
▁Befehl 69
▁Explosion 69
▁Hans 69
▁Januar 69
▁Männchen 69
▁Mögliche 69
▁Orchester 69
▁Saturn 69
▁Schalt 69
▁Schnell 69
▁Schwanz 69
▁Selbstmord 69
▁Simulation 69
▁Treibstoff 69
▁William 69
▁abstrakte 69
▁beendet 69
▁bewahren 69
▁einzigartige 69
▁gefährdet 69
▁gemeinnützige 69
▁heiraten 69
▁hässlich 69
▁jüngste 69
▁organische 69
▁prim 69
▁reparieren 69
▁schief 69
▁versicher 69
▁wi 69
50 68
avi 68
fabrik 68
gegenwärtig 68
gesundheit 68
gängig 68
häuser 68
rgendwo 68
stock 68
wünscht 68
▁Bürgermeister 68
▁Dynamik 68
▁Erwärmung 68
▁Hill 68
▁Initiative 68
▁King 68
▁Kontroll 68
▁Linse 68
▁Oxford 68
▁Pläne 68
▁Sir 68
▁Strahlung 68
▁Umfrage 68
▁Verhandlung 68
▁Watt 68
▁angetrieben 68
▁begin 68
▁herausfand 68
▁zwingen 68
.500 67
chleife 67
code 67
erkrankung 67
gefügt 67
medizin 67
nny 67
rücken 67
zehn 67
▁Alex 67
▁Anstrengung 67
▁Elektronen 67
▁Hügel 67
▁Manhattan 67
▁Parlament 67
▁Richter 67
▁Transparenz 67
▁Treppe 67
▁Trotzdem 67
▁Unterwasser 67
▁Väter 67
▁Wide 67
▁able 67
▁anbieten 67
▁diskutieren 67
▁diskutiert 67
▁erneuerbare 67
▁geeignet 67
▁gegessen 67
▁gestartet 67
▁heilige 67
▁hübsch 67
▁rational 67
▁trocken 67
▁ungeheuer 67
▁vernetzt 67
▁vernünftig 67
▁zwang 67
amb 66
gucken 66
harm 66
oma 66
schränke 66
verhältnis 66
ville 66
▁2001 66
▁2003 66
▁95 66
▁Alzheimer 66
▁Anhänger 66
▁Behinderung 66
▁Erzähl 66
▁Fund 66
▁Howard 66
▁Kohlendioxid 66
▁Konstruktion 66
▁Kooperation 66
▁Lärm 66
▁Nachfrage 66
▁PC 66
▁Pazifik 66
▁Sammlung 66
▁Scheibe 66
▁Science 66
▁Smith 66
▁Thunfisch 66
▁Truppe 66
▁Tränen 66
▁Urknall 66
▁Valley 66
▁Weihnachts 66
▁Währung 66
▁clever 66
▁dauerhaft 66
▁dis 66
▁ehemalige 66
▁erfasst 66
▁geöffnet 66
▁gift 66
▁spontan 66
▁teilnehmen 66
▁unterrichtet 66
Boot 65
Dienstleistungen 65
Energieverbrauch 65
Nullsummen 65
boot 65
brigens 65
drüse 65
kontakt 65
prinzip 65
wachstum 65
▁Abendessen 65
▁Auffassung 65
▁Bob 65
▁Business 65
▁Cap 65
▁Ehemann 65
▁Flüchtling 65
▁Gerade 65
▁Kamel 65
▁Nordamerika 65
▁Optimismus 65
▁Pflanze 65
▁Schöne 65
▁Sollte 65
▁Ungleichheit 65
▁Zurück 65
▁circa 65
▁erfordert 65
▁fließt 65
▁freiwillig 65
▁geheime 65
▁innovative 65
▁insgesamt 65
▁intuitiv 65
▁militärische 65
▁präzise 65
▁rettet 65
▁schlussendlich 65
▁star 65
▁verbrauchen 65
▁weiterentwickel 65
atar 64
board 64
gemeinschaft 64
heirat 64
ix 64
kontrolle 64
platte 64
▁Abenteuer 64
▁Anweisung 64
▁Benutzer 64
▁Gelände 64
▁Glühbirne 64
▁Gore 64
▁Substanz 64
▁anfängt 64
▁außerordentlich 64
▁geplant 64
▁hilfreich 64
▁ignorieren 64
▁transform 64
▁verdoppelt 64
▁verlangen 64
▁öfter 64
Sti 63
behindert 63
firma 63
forscher 63
lic 63
pflanzt 63
schaffung 63
unterschied 63
▁Brennstoffe 63
▁Erscheinung 63
▁Fantasie 63
▁Gerüst 63
▁Gletscher 63
▁Hollywood 63
▁Julia 63
▁Konzert 63
▁Lab 63
▁Lebensqualität 63
▁Notiz 63
▁Nährstoffe 63
▁Variation 63
▁ausreichend 63
▁berühmt 63
▁beschleunigt 63
▁fair 63
▁film 63
▁getestet 63
▁islamische 63
▁motiviert 63
▁spend 63
▁stammen 63
▁südlich 63
▁tend 63
▁treibt 63
▁unterscheidet 63
▁verhindert 63
▁verknüpft 63
▁verurteilt 63
Komm 62
Kopf 62
atter 62
flasche 62
uc 62
▁1950 62
▁Angesicht 62
▁Anwälte 62
▁Balance 62
▁Bedauern 62
▁Cambridge 62
▁Fleck 62
▁Florida 62
▁Institute 62
▁Kleider 62
▁Koran 62
▁Kranken 62
▁Mahlzeit 62
▁Praxis 62
▁Privileg 62
▁Säule 62
▁Tendenz 62
▁Tony 62
▁You 62
▁dringend 62
▁elegant 62
▁erledigen 62
▁erledigt 62
▁ethnische 62
▁genial 62
▁grösser 62
▁ideal 62
▁irgendwas 62
▁kombiniert 62
▁künstlerische 62
▁leise 62
▁muslimische 62
▁or 62
▁richtet 62
▁scharf 62
▁sex 62
▁verwandt 62
▁wundervoll 62
Syndrom 61
abhängig 61
anthrop 61
bedingungen 61
face 61
katastrophe 61
objekt 61
okratische 61
schlecht 61
streif 61
▁Alkohol 61
▁Are 61
▁Bewohner 61
▁Can 61
▁Dick 61
▁Flughafen 61
▁Gates 61
▁Gefangene 61
▁Hilfsmittel 61
▁Hölle 61
▁KB 61
▁Pfeil 61
▁Prüfung 61
▁Ray 61
▁Sendung 61
▁Vermögen 61
▁ausdrücken 61
▁begleitet 61
▁block 61
▁bring 61
▁deutsche 61
▁erkunden 61
▁gegenwärtige 61
▁gelehrt 61
▁ignoriert 61
▁interaktive 61
▁involviert 61
▁letztlich 61
▁offiziell 61
▁theoretisch 61
▁verlor 61
▁überwältigend 61
Maschine 60
Mensch 60
berwachung 60
gesichts 60
rry 60
schätzung 60
thiopien 60
troph 60
viertel 60
wurzel 60
▁1970 60
▁Besondere 60
▁Entschuldigung 60
▁Fundament 60
▁Knopf 60
▁Meeting 60
▁Mücke 60
▁Nobel 60
▁Offensichtlich 60
▁On 60
▁Priorität 60
▁Reichtum 60
▁auszudrücken 60
▁braun 60
▁einschließlich 60
▁ermutigen 60
▁universelle 60
▁zwölf 60
▁überprüfen 60
Behörde 59
Jährige 59
Technologie 59
ago 59
frucht 59
klärung 59
marsch 59
pper 59
rechnung 59
wächs 59
▁700 59
▁800 59
▁Analogie 59
▁Animation 59
▁Berührung 59
▁Bescheid 59
▁Großvater 59
▁Größenordnung 59
▁Horizont 59
▁Hormon 59
▁Installation 59
▁Löwen 59
▁Methan 59
▁Oktober 59
▁Poesie 59
▁Pyramide 59
▁Rollstuhl 59
▁TEDTalk 59
▁Verbraucher 59
▁Yo 59
▁alternative 59
▁bedeutsam 59
▁besaß 59
▁erzielen 59
▁kombinieren 59
▁plus 59
▁post 59
▁revolution 59
▁schwanger 59
▁symbol 59
▁vorhersagen 59
▁wunderschön 59
10 58
Experte 58
Krankenschwester 58
ace 58
blätter 58
brüche 58
gehoben 58
gemäß 58
tip 58
wood 58
▁Apparat 58
▁Applaus 58
▁Bandbreite 58
▁Blüte 58
▁Direktor 58
▁Dopamin 58
▁Filter 58
▁Flagge 58
▁Heilung 58
▁Individuum 58
▁LKW 58
▁Media 58
▁Mittagessen 58
▁Palm 58
▁Phosphor 58
▁Produktivität 58
▁Studium 58
▁Töchter 58
▁bescheid 58
▁bewirkt 58
▁fügt 58
▁mass 58
▁schmerzhaft 58
▁stattfinden 58
▁tag 58
Erkrankung 57
Programm 57
klettern 57
kreuz 57
marke 57
quo 57
sky 57
stärkste 57
trächtig 57
tschaftswachstum 57
▁Bay 57
▁Branche 57
▁CD 57
▁Chinesisch 57
▁Digital 57
▁Getreide 57
▁Gramm 57
▁PM 57
▁Phantom 57
▁Rechner 57
▁Voraussetzung 57
▁Widerspruch 57
▁Zentimeter 57
▁finanzieren 57
▁gesünder 57
▁gewissermaßen 57
▁gigantische 57
▁isoliert 57
▁it 57
▁lenken 57
▁nukleare 57
▁region 57
▁schreibe 57
▁stattfindet 57
▁umfassende 57
▁wirksam 57
▁äußere 57
Herangehensweise 56
charakter 56
oid 56
zweck 56
▁Automobil 56
▁Februar 56
▁Frucht 56
▁Human 56
▁Interpretation 56
▁Kapazität 56
▁LED 56
▁Lügen 56
▁May 56
▁Nachmittag 56
▁Offenheit 56
▁Teppich 56
▁Tiefsee 56
▁Weibchen 56
▁Wünsche 56
▁absolute 56
▁akzeptiert 56
▁bedienen 56
▁draussen 56
▁fan 56
▁gelähmt 56
▁glamourös 56
▁klingen 56
▁mu 56
▁no 56
▁optische 56
▁probieren 56
▁simple 56
▁spektakulär 56
▁statistisch 56
▁urban 56
▁verborgen 56
▁verheiratet 56
▁verringern 56
▁verzweifelt 56
▁ärmsten 56
bur 55
geschrieben 55
glo 55
märkte 55
ngefähr 55
post 55
rotten 55
schuhe 55
verständnis 55
á 55
‹ 55
› 55
▁85 55
▁Anthrop 55
▁Bla 55
▁Brian 55
▁Cousin 55
▁Demonstration 55
▁Dreieck 55
▁Durchmesser 55
▁Fettleibigkeit 55
▁Förder 55
▁Gravitation 55
▁Hühner 55
▁Käse 55
▁Kühe 55
▁Manager 55
▁Minister 55
▁Oxytocin 55
▁Pfad 55
▁Programmierer 55
▁Reichweite 55
▁Selektion 55
▁South 55
▁Taliban 55
▁Variante 55
▁Verwandte 55
▁Vietnam 55
▁aufmerksam 55
▁derzeitige 55
▁entwarf 55
▁geredet 55
▁iPod 55
▁sanft 55
▁scheitern 55
▁sorgfältig 55
▁stieß 55
▁vertikal 55
Design 54
Modell 54
konzept 54
kriminelle 54
kugel 54
kunst 54
lehrer 54
muskel 54
sektor 54
▁Bakterium 54
▁Come 54
▁Delphin 54
▁Elektronik 54
▁Empathie 54
▁Fossil 54
▁Glamour 54
▁Hersteller 54
▁Jeff 54
▁Jäger 54
▁Knoten 54
▁Konzentration 54
▁Modern 54
▁Moore 54
▁Newton 54
▁Stabilität 54
▁TV 54
▁Tänzer 54
▁Türkei 54
▁Versagen 54
▁atemberaubend 54
▁definitiv 54
▁eingeschränkt 54
▁erheblich 54
▁fortgeschritten 54
▁live 54
▁motivieren 54
▁schwamm 54
▁tragisch 54
▁unangenehm 54
▁unheimlich 54
▁vergleichbar 54
▁zahlreiche 54
hülle 53
ight 53
kräftig 53
video 53
▁Ameise 53
▁Andrew 53
▁Anfänge 53
▁Distanz 53
▁Entropie 53
▁Ethik 53
▁Expedition 53
▁Feuerwehr 53
▁Kalorien 53
▁Management 53
▁Nick 53
▁Profit 53
▁Republikaner 53
▁Rhythmus 53
▁Rio 53
▁Rohr 53
▁Streben 53
▁Tafel 53
▁Treibhausgase 53
▁Töne 53
▁Verzweiflung 53
▁analysiert 53
▁benannt 53
▁eröffnen 53
▁gefolgt 53
▁generell 53
▁interview 53
▁konstruiert 53
▁spürt 53
▁umzusetzen 53
▁widmen 53
Zahl 52
größte 52
illion 52
kenntnis 52
nutzen 52
schwäche 52
wiegend 52
▁Bang 52
▁Blue 52
▁Ehrlich 52
▁Engagement 52
▁Henry 52
▁Immunsystem 52
▁Mischung 52
▁Mühe 52
▁Out 52
▁Pandemie 52
▁Primaten 52
▁Reihenfolge 52
▁Scott 52
▁Stickstoff 52
▁Tropfen 52
▁Ultraschall 52
▁Unabhängigkeit 52
▁beantwortet 52
▁begegnet 52
▁erschafft 52
▁erstaunt 52
▁programmieren 52
▁schmutzig 52
▁transparent 52
▁verfügt 52
200 51
Glücklicherweise 51
Verbrauch 51
geholt 51
grenzt 51
höhe 51
ible 51
lia 51
mütig 51
regierung 51
ward 51
▁55 51
▁Aufzeichnungen 51
▁Dezember 51
▁Geometrie 51
▁Grösse 51
▁Life 51
▁Lincoln 51
▁Notwendigkeit 51
▁Pharma 51
▁Regenwald 51
▁Stephen 51
▁Tsunami 51
▁Vereinte 51
▁Wall 51
▁attraktiv 51
▁beschleunigen 51
▁diagnostiziert 51
▁engagiert 51
▁gestohlen 51
▁konsumieren 51
▁längst 51
▁nördlich 51
▁probiert 51
▁programmiert 51
▁stattfand 51
▁synthetische 51
▁tiefgreifend 51
▁uralte 51
▁vergrößert 51
▁vielfältig 51
▁wohlhabend 51
▁wörtlich 51
▁zivil 51
▁überqueren 51
bürger 50
ingenieur 50
pläne 50
risiko 50
strategie 50
ströme 50
zog 50
▁Abraham 50
▁Allerdings 50
▁Amerikanische 50
▁August 50
▁Bausteine 50
▁Behauptung 50
▁Benjamin 50
▁Dschihad 50
▁Feynman 50
▁Hol 50
▁Jane 50
▁Jazz 50
▁Lego 50
▁Puppe 50
▁Regime 50
▁River 50
▁Verletzlichkeit 50
▁Zuhörer 50
▁architektonisch 50
▁ausgestorben 50
▁auswählen 50
▁beschädigt 50
▁grösste 50
▁kosmische 50
▁let 50
▁steigern 50
▁tri 50
▁verspreche 50
▁verstecken 50
▁wahnsinnig 50
Amerika 49
ax 49
cial 49
computer 49
drängen 49
klettert 49
missbrauch 49
papier 49
▁2050 49
▁Albert 49
▁Antarktis 49
▁Anwalt 49
▁Börse 49
▁Cricket 49
▁Daniel 49
▁Earth 49
▁Fledermäuse 49
▁Gandhi 49
▁Hong 49
▁Kevin 49
▁Pizza 49
▁Portrait 49
▁Protozelle 49
▁Reaktor 49
▁Shanghai 49
▁Tempel 49
▁Termin 49
▁Verwaltung 49
▁akademische 49
▁angeboten 49
▁beeindruckt 49
▁bewältigen 49
▁bzw 49
▁detailliert 49
▁fokussieren 49
▁geprägt 49
▁lügen 49
▁materielle 49
▁psycho 49
▁repräsentieren 49
▁versorgt 49
▁zehntausende 49
Also 48
Pfeif 48
firmen 48
mikroskop 48
unklar 48
– 48
▁2002 48
▁Antibiotika 48
▁Barriere 48
▁Erstaunlich 48
▁Glaube 48
▁Griechen 48
▁Großeltern 48
▁Insekt 48
▁Johnson 48
▁Jones 48
▁Journal 48
▁Kandidaten 48
▁Konversation 48
▁Kämpfe 48
▁Melodie 48
▁Nelson 48
▁Profil 48
▁Rechnung 48
▁Richtlinie 48
▁Röhre 48
▁Sonntag 48
▁Tell 48
▁Verpflichtung 48
▁Vorlesung 48
▁Vulkan 48
▁explodiert 48
▁gold 48
▁großzügig 48
▁klappt 48
▁minimal 48
▁moral 48
▁verarbeitet 48
▁verstärkt 48
▁wahrhaftig 48
▁züchten 48
Gruppe 47
No 47
Sahara 47
ergebnisse 47
kämpfe 47
of 47
signal 47
text 47
verbindung 47
zauber 47
° 47
▁29 47
▁33 47
▁Baumwoll 47
▁Beleuchtung 47
▁Big 47
▁Black 47
▁Erlaubnis 47
▁Hochschul 47
▁Jesus 47
▁Larry 47
▁Mandela 47
▁Mechanismus 47
▁Schöpfung 47
▁Versicherung 47
▁Yeah 47
▁biologisch 47
▁chaotisch 47
▁externe 47
▁friedlich 47
▁hungrig 47
▁hyper 47
▁jüdische 47
▁kopieren 47
▁legal 47
▁linear 47
▁verdoppeln 47
▁verwirrt 47
AIDS 46
Industrie 46
gemischt 46
pause 46
schliessen 46
verschmutzung 46
▁Algorithmus 46
▁Amateur 46
▁Clinton 46
▁Erdgas 46
▁Foundation 46
▁Hüfte 46
▁Kompromiss 46
▁Law 46
▁Luxus 46
▁Mike 46
▁Periode 46
▁Physi 46
▁Plätze 46
▁SETI 46
▁Schizophrenie 46
▁Spanien 46
▁State 46
▁Visualisierung 46
▁Würfel 46
▁Zigarette 46
▁ausprobieren 46
▁fotografieren 46
▁jahrelang 46
▁konkurrieren 46
▁konstant 46
▁kürzer 46
▁lächeln 46
▁ordentlich 46
▁rate 46
▁rep 46
▁robust 46
▁russische 46
▁streng 46
▁trans 46
▁verbrannt 46
▁vergewaltigt 46
▁vergrößern 46
▁verwirklichen 46
▁zwanzig 46
Muschel 45
Schlussfolgerung 45
ary 45
fotograf 45
gue 45
held 45
ntwicklungshilfe 45
ray 45
ting 45
zuverlässig 45
▁2011 45
▁350 45
▁Anliegen 45
▁Bewertung 45
▁Einladung 45
▁Frosch 45
▁Gegner 45
▁Global 45
▁Indian 45
▁Republik 45
▁Silicon 45
▁Sklaverei 45
▁Unglaublich 45
▁Urheberrecht 45
▁Virginia 45
▁Wohltätigkeit 45
▁anfühlt 45
▁anzuwenden 45
▁ausgestattet 45
▁befestigt 45
▁bewiesen 45
▁beängstigend 45
▁brilliant 45
▁demonstriert 45
▁dokumentiert 45
▁drahtlose 45
▁konkrete 45
▁magnet 45
Computer 44
Komplex 44
Problem 44
Sandwich 44
analyse 44
erfahrung 44
kilometer 44
level 44
mate 44
moral 44
synchron 44
▁Belastung 44
▁Besonders 44
▁Bronx 44
▁Chr 44
▁Empfäng 44
▁Götter 44
▁Hütte 44
▁Indus 44
▁Joseph 44
▁Kortex 44
▁Krähen 44
▁Künste 44
▁LG 44
▁Leinwand 44
▁Long 44
▁MRT 44
▁Premierminister 44
▁Rückenmark 44
▁Später 44
▁Wähler 44
▁Zutaten 44
▁angewendet 44
▁betrüg 44
▁bräuchte 44
▁daneben 44
▁entsetzlich 44
▁ermutigt 44
▁errichtet 44
▁erschwinglich 44
▁erwischt 44
▁geglaubt 44
▁grab 44
▁gu 44
▁identifiziert 44
▁peinlich 44
▁stimuli 44
▁strategisch 44
▁tip 44
▁verleihen 44
▁willkürlich 44
▁woanders 44
Regierung 43
filter 43
händler 43
lässlich 43
nachricht 43
school 43
tail 43
▁Arzneimittel 43
▁Begeisterung 43
▁Beratung 43
▁DVD 43
▁Dilemma 43
▁Hardware 43
▁Kambodscha 43
▁Lebensunterhalt 43
▁Münze 43
▁Redwood 43
▁Schachtel 43
▁Sowjetunion 43
▁Tabelle 43
▁Verschmutzung 43
▁Wright 43
▁andauernd 43
▁ausgedrückt 43
▁extreme 43
▁flüssige 43
▁fröhlich 43
▁konservativ 43
▁menschlich 43
▁müsst 43
▁problem 43
▁umgewandelt 43
▁verringert 43
▁verschieben 43
▁ähnelt 43
gearbeitet 42
nerzähler 42
student 42
virus 42
▁April 42
▁Atlantik 42
▁Begegnung 42
▁County 42
▁Dankeschön 42
▁Demokraten 42
▁Deutsch 42
▁Erweiterung 42
▁Fusion 42
▁Hausaufgaben 42
▁Joshua 42
▁North 42
▁Sklaven 42
▁Transistor 42
▁Trinkwasser 42
▁Vakuum 42
▁Vorgehensweise 42
▁auszuprobieren 42
▁empfehle 42
▁geflogen 42
▁gefroren 42
▁gelegentlich 42
▁mess 42
▁parallel 42
▁quant 42
▁raffiniert 42
▁sauber 42
▁verkündet 42
▁verpflichtet 42
▁zeitgenössische 42
entwickelt 41
ju 41
▁Boy 41
▁But 41
▁Cartoon 41
▁Charlie 41
▁Down 41
▁Geographic 41
▁Grand 41
▁Just 41
▁Mumbai 41
▁Talk 41
▁aggressiv 41
▁bar 41
▁even 41
▁mobile 41
▁orange 41
▁pop 41
box 40
tempo 40
tric 40
version 40
▁2020 40
▁Carolina 40
▁Evan 40
▁Everest 40
▁Nathan 40
▁Project 40
▁Stewart 40
▁These 40
▁Veteran 40
▁fix 40
▁harm 40
▁pass 40
▁personal 40
▁sign 40
back 39
lash 39
led 39
⁄ 39
▁Arthur 39
▁Histori 39
▁Louis 39
▁McDonald 39
▁November 39
▁Parkinson 39
▁Sea 39
▁Senior 39
▁Shakespeare 39
▁fi 39
▁para 39
▁physisch 39
▁stop 39
11 38
80 38
cent 38
over 38
ridge 38
▁1999 38
▁Anderson 38
▁Berlin 38
▁Buddha 38
▁Hawaii 38
▁Leonardo 38
▁Lewis 38
▁Normal 38
▁Reservat 38
▁absorb 38
▁brutal 38
▁pen 38
▁pump 38
▁sit 38
cus 37
ped 37
▁1994 37
▁Act 37
▁Alexander 37
▁Craig 37
▁Sarah 37
▁Sylvia 37
▁Wilson 37
▁element 37
▁mobil 37
▁result 37
▁sc 37
act 36
pit 36
stream 36
time 36
town 36
▁1998 36
▁Celsius 36
▁Jonathan 36
▁Senat 36
▁Tesla 36
▁iron 36
▁künstlich 36
▁leg 36
▁scan 36
▁su 36
+ 35
Patient 35
Star 35
modul 35
work 35
▁IBM 35
▁Point 35
▁Rosling 35
▁Sun 35
▁White 35
▁began 35
▁exist 35
▁primitive 35
▁talent 35
100 34
▁Back 34
▁Club 34
▁Delhi 34
▁Disney 34
▁Festival 34
▁Free 34
▁Full 34
▁Hunt 34
▁Jupiter 34
▁Monterey 34
▁Mountain 34
▁Saudi 34
▁Sierra 34
▁Susan 34
▁flexible 34
▁liberal 34
▁mild 34
▁motor 34
▁neutral 34
▁solar 34
▁visual 34
fehler 33
ical 33
motiv 33
▁1995 33
▁Apollo 33
▁Canyon 33
▁Health 33
▁Jerusalem 33
▁Rabbi 33
▁Research 33
▁Seattle 33
▁Space 33
▁Union 33
▁hyp 33
▁minus 33
▁mis 33
▁patent 33
▁permanent 33
▁solid 33
flat 32
road 32
▁Atlanta 32
▁Brooklyn 32
▁Bruce 32
▁Child 32
▁It 32
▁Sebastian 32
▁horizontal 32
▁name 32
▁van 32
▁won 32
= 31
abyte 31
generation 31
iness 31
population 31
stadium 31
▁1997 31
▁Babbage 31
▁Francis 31
▁Jefferson 31
▁Jill 31
▁Johnny 31
▁Jordan 31
▁Kelly 31
▁Kennedy 31
▁Neanderthal 31
▁Oliver 31
▁Phoenix 31
▁Rachel 31
▁TEDGlobal 31
▁Thailand 31
▁Watson 31
▁brand 31
▁diagnos 31
▁epi 31
▁late 31
▁non 31
▁plant 31
▁pre 31
apparat 30
fusion 30
ous 30
▁Alaska 30
▁Keith 30
▁Medica 30
▁Namibia 30
▁PowerPoint 30
▁Ushahidi 30
▁Wolf 30
▁Wolfram 30
▁absurd 30
▁go 30
▁implant 30
▁pal 30
▁pure 30
▁ruin 30
ombin 29
ough 29
right 29
▁Berkeley 29
▁By 29
▁Columbia 29
▁Montana 29
▁NGO 29
▁Square 29
▁Whit 29
▁analog 29
▁eBay 29
▁faul 29
▁iPad 29
▁passive 29
▁protest 29
▁radio 29
▁tie 29
) 28
bble 28
day 28
less 28
▁1996 28
▁FDA 28
▁Fellow 28
▁Hawking 28
▁Head 28
▁Juan 28
▁Kosovo 28
▁Michigan 28
▁co 28
▁filter 28
▁flu 28
▁fun 28
▁irrational 28
▁men 28
▁steril 28
▁ultra 28
,000 27
mino 27
normal 27
patient 27
plex 27
pping 27
print 27
raw 27
view 27
▁American 27
▁BMW 27
▁Dylan 27
▁East 27
▁Goliath 27
▁Himalaya 27
▁Liberia 27
▁Natasha 27
▁Pittsburgh 27
▁Sputnik 27
▁Tibet 27
▁Venezuela 27
▁app 27
▁multinational 27
▁unfair 27
▁zoom 27
Lead 26
cal 26
cle 26
style 26
ó 26
▁1945 26
▁Bangalore 26
▁Edinburgh 26
▁Even 26
▁Gordon 26
▁Mount 26
▁Mozart 26
▁Norman 26
▁OECD 26
▁Pennsylvania 26
▁Royal 26
▁Tempest 26
▁Teszler 26
▁Toronto 26
▁individuell 26
▁not 26
▁part 26
▁proportion 26
▁rec 26
▁standard 26
▁versus 26
‟ 25
▁1991 25
▁Beethoven 25
▁Cameron 25
▁Company 25
▁Emily 25
▁Hindu 25
▁Israeli 25
▁Kansas 25
▁Massachusetts 25
▁Nairobi 25
▁RNA 25
▁Sudan 25
▁bomb 25
▁kind 25
▁red 25
▁sat 25
▁set 25
▁sort 25
air 24
▁1989 24
▁1993 24
▁Armstrong 24
▁Beijing 24
▁Cooper 24
▁Jersey 24
▁Kibera 24
▁Lakota 24
▁Margaret 24
▁Philadelphia 24
▁Princeton 24
▁TEDMED 24
▁add 24
▁diverse 24
▁immense 24
▁neural 24
▁original 24
▁park 24
▁planet 24
▁wind 24
vision 23
‚ 23
▁1986 23
▁AIMS 23
▁Amsterdam 23
▁Cassini 23
▁Freud 23
▁Kiribati 23
▁Linux 23
▁Nepal 23
▁Portugal 23
▁Tamiflu 23
▁adopt 23
▁computer 23
▁dominant 23
▁got 23
▁hu 23
▁robot 23
▁vo 23
ail 22
ally 22
ating 22
▁1968 22
▁1975 22
▁Agnes 22
▁Bhutan 22
▁British 22
▁CEO 22
▁CNN 22
▁Carnegie 22
▁DARPA 22
▁Detroit 22
▁Flickr 22
▁Kyoto 22
▁Movember 22
▁Nicole 22
▁Society 22
▁Sydney 22
▁Work 22
▁Zipcar 22
▁back 22
▁diplomat 22
▁fla 22
▁high 22
▁math 22
▁relative 22
▁trivial 22
▁win 22
acre 21
read 21
retroviral 21
ted 21
è 21
í 21
▁1984 21
▁Arizona 21
▁CAPTCHA 21
▁Darfur 21
▁Enceladus 21
▁Fibonacci 21
▁Galileo 21
▁Good 21
▁Great 21
▁Hospital 21
▁House 21
▁Katrina 21
▁Kepler 21
▁Murray 21
▁Orleans 21
▁Pepsi 21
▁Starbucks 21
▁Taiwan 21
▁Turn 21
▁held 21
▁hunger 21
▁idea 21
▁immun 21
▁million 21
▁pan 21
▁physiologi 21
▁polar 21
▁privat 21
▁separate 21
▁ski 21
▁tradition 21
nce 20
β 20
‒ 20
▁California 20
▁Church 20
▁Comp 20
▁export 20
▁hack 20
▁hydro 20
▁legitim 20
▁metaphor 20
▁poet 20
▁sand 20
▁sum 20
▁tele 20
▁transplant 20
▁up 20
iving 19
omics 19
term 19
▁God 19
▁One 19
▁Turk 19
▁Virgin 19
▁Who 19
▁art 19
▁erectus 19
▁hall 19
▁kit 19
▁manifest 19
▁marine 19
▁orient 19
▁trauma 19
▁universal 19
▁viral 19
▁you 19
Spider 18
down 18
generator 18
▁Music 18
▁Over 18
▁Sweeney 18
▁Tokyo 18
▁Zimbabwe 18
▁expand 18
▁flat 18
▁paradox 18
▁reform 18
▁signal 18
▁universe 18
▁yeah 18
rrow 17
sourcing 17
▁Galapagos 17
▁Mexico 17
▁Think 17
▁adapt 17
▁blend 17
▁era 17
▁mode 17
▁put 17
▁see 17
▁system 17
0,000 16
Telescope 16
arian 16
head 16
ities 16
life 16
ology 16
reservat 16
▁Bangladesh 16
▁alarm 16
▁attack 16
▁bad 16
▁blog 16
▁can 16
▁implement 16
▁introvert 16
▁on 16
▁position 16
▁rapid 16
▁tap 16
▁tick 16
Prince 15
cop 15
foot 15
minute 15
ñ 15
▁America 15
▁Kenya 15
▁MRI 15
▁Office 15
▁There 15
▁United 15
▁behind 15
▁front 15
▁industrial 15
▁mono 15
▁person 15
▁pig 15
▁prior 15
▁sto 15
▁ultraviolet 15
▁virtue 15
@ 14
Well 14
You 14
enthusiast 14
ever 14
ily 14
institut 14
light 14
ping 14
▁Building 14
▁Central 14
▁Earl 14
▁Empire 14
▁More 14
▁evolution 14
▁fit 14
▁him 14
▁mind 14
▁mini 14
▁out 14
▁sport 14
▁stress 14
!« 13
aeda 13
atory 13
house 13
parameter 13
à 13
▁Let 13
▁Prize 13
▁Technology 13
▁Victoria 13
▁Women 13
▁boom 13
▁fragment 13
▁fund 13
▁mar 13
▁met 13
▁pat 13
▁profession 13
▁recycle 13
▁sick 13
( 12
cep 12
itude 12
load 12
ship 12
▁Christian 12
▁Pacific 12
▁algorithm 12
▁drift 12
▁grand 12
▁just 12
▁male 12
▁manage 12
▁nerve 12
▁path 12
▁rich 12
ious 11
maximum 11
point 11
water 11
▁Asia 11
▁Buddhist 11
▁Court 11
▁Library 11
▁Medicine 11
▁Now 11
▁Thank 11
▁bank 11
▁check 11
▁fat 11
▁from 11
▁hero 11
▁limit 11
▁lose 11
▁mill 11
▁multiple 11
▁off 11
▁open 11
▁prop 11
▁psychiatri 11
▁random 11
▁relation 11
▁routine 11
▁smart 11
▁station 11
ated 10
carbon 10
craft 10
ful 10
holder 10
ographic 10
room 10
▁10,000 10
▁Atlantic 10
▁Four 10
▁Girl 10
▁Government 10
▁Have 10
▁Take 10
▁Yemen 10
▁Your 10
▁ambition 10
▁definition 10
▁download 10
▁embryo 10
▁limb 10
▁linguist 10
▁origin 10
▁power 10
▁press 10
▁rat 10
▁schizophren 10
▁spin 10
▁stereo 10
▁tank 10
▁transfer 10
▁vision 10
^ 9
▁5,000 9
▁France 9
▁His 9
▁Industrial 9
▁band 9
▁belief 9
▁diver 9
▁flies 9
▁grade 9
▁material 9
▁progress 9
▁refer 9
▁top 9
▁us 9
# 8
What 8
ization 8
ving 8
▁Coast 8
▁Education 8
▁English 8
▁First 8
▁India 8
▁Like 8
▁That 8
▁Voice 8
▁Western 8
▁With 8
▁ball 8
▁don 8
▁find 8
▁flip 8
▁fragile 8
▁graph 8
▁hit 8
▁humor 8
▁individual 8
▁last 8
▁list 8
▁make 8
▁metal 8
▁must 8
▁opera 8
▁passion 8
▁pick 8
▁stigma 8
▁student 8
▁under 8
▁your 8
,500 7
American 7
ease 7
lapse 7
like 7
ncyclopedia 7
profit 7
▁1,000 7
▁2,000 7
▁Every 7
▁June 7
▁Latin 7
▁Ocean 7
▁Right 7
▁Tanzania 7
▁detail 7
▁emotion 7
▁fact 7
▁hip 7
▁hybrid 7
▁journal 7
▁kick 7
▁love 7
▁mix 7
▁photo 7
▁rock 7
▁spiral 7
▁variable 7
atic 6
dding 6
integration 6
maker 6
shirt 6
technology 6
▁100,000 6
▁Canada 6
▁Congress 6
▁Council 6
▁French 6
▁Look 6
▁Rwanda 6
▁Six 6
▁They 6
▁are 6
▁body 6
▁by 6
▁crowd 6
▁did 6
▁emerge 6
▁fall 6
▁final 6
▁gas 6
▁general 6
▁hormone 6
▁invest 6
▁light 6
▁like 6
▁low 6
▁mask 6
▁media 6
▁nano 6
▁past 6
▁pet 6
▁remix 6
▁rev 6
▁rhythm 6
▁run 6
▁sad 6
▁security 6
▁sent 6
▁sh 6
▁used 6
▁value 6
▁vital 6
▁volume 6
▁wait 6
▁web 6
Look 5
This 5
` 5
digit 5
fish 5
ological 5
osphere 5
 5
 5
ã 5
ç 5
▁'60 5
▁Here 5
▁Next 5
▁Second 5
▁Today 5
▁When 5
▁Yet 5
▁baby 5
▁face 5
▁generation 5
▁hold 5
▁impos 5
▁instrument 5
▁insulin 5
▁meditat 5
▁narrative 5
▁new 5
▁one 5
▁option 5
▁pad 5
▁plane 5
▁point 5
▁program 5
▁rap 5
▁sorry 5
▁sounds 5
▁source 5
▁spot 5
▁stem 5
▁stick 5
▁sun 5
▁symptom 5
▁text 5
▁use 5
▁vagina 5
▁valid 5
How 4
[Q 4
aging 4
ists 4
long 4
 4
­ 4
â 4
ê 4
▁Africa 4
▁If 4
▁President 4
▁Three 4
▁Yes 4
▁adult 4
▁alphabet 4
▁basis 4
▁beat 4
▁birthday 4
▁boy 4
▁bus 4
▁car 4
▁designed 4
▁determin 4
▁edit 4
▁firm 4
▁genes 4
▁grave 4
▁have 4
▁honor 4
▁information 4
▁legislat 4
▁legs 4
▁lot 4
▁manipulat 4
▁miserable 4
▁neck 4
▁our 4
▁range 4
▁search 4
▁situation 4
▁split 4
▁tax 4
▁term 4
▁terror 4
▁that 4
▁water 4
▁well 4
▁with 4
!!! 3
!] 3
* 3
If 3
Wait 3
Yeah 3
Yes 3
ability 3
born 3
culture 3
dollar 3
found 3
frequent 3
ggle 3
ought 3
power 3
¥ 3
É 3
× 3
ø 3
ú 3
œ 3
▁After 3
▁Arctic 3
▁Did 3
▁Eastern 3
▁How 3
▁Middle 3
▁Most 3
▁Our 3
▁People 3
▁Security 3
▁States 3
▁Swiss 3
▁Third 3
▁Two 3
▁action 3
▁amateur 3
▁billion 3
▁box 3
▁cloud 3
▁cyber 3
▁down 3
▁email 3
▁favor 3
▁head 3
▁initial 3
▁inside 3
▁lab 3
▁lack 3
▁later 3
▁least 3
▁mine 3
▁model 3
▁orbit 3
▁patient 3
▁perform 3
▁period 3
▁polio 3
▁portrait 3
▁professional 3
▁rip 3
▁sensation 3
▁sky 3
▁take 3
▁terrorist 3
▁them 3
▁trend 3
▁type 3
▁video 3
▁wall 3
▁who 3
!‟ 2
// 2
QQ 2
[@ 2
[» 2
[Ü 2
_ 2
aking 2
cut 2
engineer 2
ified 2
istic 2
ologist 2
pose 2
related 2
skeletal 2
spect 2
© 2
«] 2
® 2
Å 2
ë 2
ô 2
ý 2
ā 2
š 2
▁'70 2
▁3,000 2
▁Abou 2
▁African 2
▁Again 2
▁Australia 2
▁Friday 2
▁GDP 2
▁Some 2
▁Sometimes 2
▁This 2
▁Watch 2
▁address 2
▁afford 2
▁answer 2
▁around 2
▁artist 2
▁audio 2
▁better 2
▁bicycle 2
▁blank 2
▁browse 2
▁bug 2
▁built 2
▁but 2
▁came 2
▁capture 2
▁cents 2
▁changing 2
▁come 2
▁comic 2
▁cr 2
▁crazy 2
▁dad 2
▁data 2
▁disrupt 2
▁done 2
▁every 2
▁feel 2
▁feet 2
▁fell 2
▁forever 2
▁game 2
▁gap 2
▁give 2
▁hospital 2
▁kilo 2
▁life 2
▁listen 2
▁lives 2
▁lobby 2
▁look 2
▁map 2
▁marriage 2
▁method 2
▁micro 2
▁mission 2
▁nation 2
▁network 2
▁never 2
▁now 2
▁only 2
▁partner 2
▁photograph 2
▁pyramid 2
▁quiet 2
▁rabbi 2
▁rare 2
▁rid 2
▁ritual 2
▁row 2
▁seat 2
▁shop 2
▁something 2
▁step 2
▁sweet 2
▁taste 2
▁tell 2
▁than 2
▁turns 2
▁two 2
▁uniform 2
▁upon 2
▁virus 2
▁winter 2
▁world 2
!! 1
!& 1
!` 1
!» 1
%! 1
%] 1
(= 1
/Ü 1
XX 1
XXX 1
[# 1
[X 1
[Ä 1
\ 1
]! 1
ably 1
aries 1
aught 1
communica 1
control 1
hrew 1
ibility 1
ically 1
ify 1
interest 1
ivity 1
ized 1
keeper 1
ography 1
plica 1
pped 1
tract 1
unclear 1
£ 1
¥¥ 1
Ç 1
à! 1
î 1
ï 1
ć 1
ō 1
к 1
Ӓ 1
€ 1
▁Brazil 1
▁Christmas 1
▁Democrat 1
▁Department 1
▁Ethiopia 1
▁Europe 1
▁European 1
▁From 1
▁Gulf 1
▁Jewish 1
▁Many 1
▁Mexican 1
▁Number 1
▁Olympic 1
▁account 1
▁active 1
▁actor 1
▁adjust 1
▁alive 1
▁angle 1
▁architecture 1
▁bag 1
▁beautiful 1
▁becomes 1
▁bias 1
▁bike 1
▁bill 1
▁blue 1
▁board 1
▁bow 1
▁branch 1
▁breath 1
▁bright 1
▁building 1
▁camp 1
▁care 1
▁cat 1
▁center 1
▁challenge 1
▁champion 1
▁character 1
▁choice 1
▁click 1
▁climate 1
▁clo 1
▁club 1
▁color 1
▁coming 1
▁community 1
▁complex 1
▁computing 1
▁con 1
▁course 1
▁cover 1
▁date 1
▁days 1
▁define 1
▁degrees 1
▁desert 1
▁dignity 1
▁direct 1
▁director 1
▁dog 1
▁doing 1
▁dream 1
▁drink 1
▁drive 1
▁egg 1
▁electronic 1
▁else 1
▁emissions 1
▁enough 1
▁enter 1
▁expedition 1
▁exploit 1
▁express 1
▁eyes 1
▁fantastic 1
▁fashion 1
▁feeling 1
▁field 1
▁finger 1
▁fire 1
▁first 1
▁fish 1
▁five 1
▁flash 1
▁fluid 1
▁fly 1
▁focus 1
▁food 1
▁foundation 1
▁four 1
▁freak 1
▁freedom 1
▁function 1
▁funny 1
▁going 1
▁golf 1
▁ground 1
▁gun 1
▁habit 1
▁happiness 1
▁happy 1
▁hear 1
▁higher 1
▁how 1
▁humans 1
▁hydrogen 1
▁if 1
▁ill 1
▁image 1
▁impression 1
▁intention 1
▁intervention 1
▁into 1
▁invent 1
▁kid 1
▁kill 1
▁knock 1
▁law 1
▁learn 1
▁leave 1
▁led 1
▁level 1
▁lift 1
▁liquid 1
▁little 1
▁lost 1
▁loud 1
▁magazine 1
▁malaria 1
▁match 1
▁mom 1
▁mother 1
▁motivation 1
▁moving 1
▁much 1
▁museum 1
▁natural 1
▁nice 1
▁nothing 1
▁offer 1
▁old 1
▁onto 1
▁operation 1
▁optic 1
▁orchestra 1
▁over 1
▁oxygen 1
▁pain 1
▁pay 1
▁pea 1
▁phone 1
▁place 1
▁please 1
▁plot 1
▁popular 1
▁population 1
▁present 1
▁professor 1
▁protein 1
▁proud 1
▁reality 1
▁reason 1
▁recognition 1
▁recycling 1
▁related 1
▁relax 1
▁release 1
▁religion 1
▁resources 1
▁retina 1
▁right 1
▁said 1
▁salt 1
▁same 1
▁sandwich 1
▁says 1
▁schools 1
▁scratch 1
▁sensitive 1
▁sexual 1
▁share 1
▁she 1
▁shot 1
▁show 1
▁side 1
▁skeptic 1
▁snow 1
▁software 1
▁sold 1
▁sound 1
▁spec 1
▁started 1
▁statement 1
▁street 1
▁studio 1
▁sw 1
▁talk 1
▁team 1
▁terrible 1
▁thing 1
▁think 1
▁this 1
▁thought 1
▁through 1
▁time 1
▁tough 1
▁track 1
▁traditional 1
▁true 1
▁turn 1
▁virtual 1
▁walk 1
▁walked 1
▁want 1
▁way 1
▁when 1
▁witness 1
送你葱 1
madeupword0000 0
